{
  "version": "1.0",
  "truncation": null,
  "padding": null,
  "added_tokens": [
    {
      "id": 0,
      "content": "<pad>",
      "single_word": false,
      "lstrip": false,
      "rstrip": false,
      "normalized": false,
      "special": true
    },
    {
      "id": 1,
      "content": "<unk>",
      "single_word": false,
      "lstrip": false,
      "rstrip": false,
      "normalized": false,
      "special": true
    },
    {
      "id": 2,
      "content": "<s>",
      "single_word": false,
      "lstrip": false,
      "rstrip": false,
      "normalized": false,
      "special": true
    },
    {
      "id": 3,
      "content": "</s>",
      "single_word": false,
      "lstrip": false,
      "rstrip": false,
      "normalized": false,
      "special": true
    },
    {
      "id": 4,
      "content": "<2en>",
      "single_word": false,
      "lstrip": false,
      "rstrip": false,
      "normalized": false,
      "special": true
    },
    {
      "id": 5,
      "content": "<2pa>",
      "single_word": false,
      "lstrip": false,
      "rstrip": false,
      "normalized": false,
      "special": true
    },
    {
      "id": 6,
      "content": "<legal>",
      "single_word": false,
      "lstrip": false,
      "rstrip": false,
      "normalized": false,
      "special": true
    },
    {
      "id": 7,
      "content": "<general>",
      "single_word": false,
      "lstrip": false,
      "rstrip": false,
      "normalized": false,
      "special": true
    },
    {
      "id": 8,
      "content": "<literal>",
      "single_word": false,
      "lstrip": false,
      "rstrip": false,
      "normalized": false,
      "special": true
    },
    {
      "id": 9,
      "content": "<natural>",
      "single_word": false,
      "lstrip": false,
      "rstrip": false,
      "normalized": false,
      "special": true
    }
  ],
  "normalizer": {
    "type": "Sequence",
    "normalizers": [
      {
        "type": "NFC"
      }
    ]
  },
  "pre_tokenizer": {
    "type": "Metaspace",
    "replacement": "▁",
    "prepend_scheme": "always",
    "split": true
  },
  "post_processor": null,
  "decoder": {
    "type": "Metaspace",
    "replacement": "▁",
    "prepend_scheme": "always",
    "split": true
  },
  "model": {
    "type": "BPE",
    "dropout": null,
    "unk_token": "<unk>",
    "continuing_subword_prefix": null,
    "end_of_word_suffix": null,
    "fuse_unk": false,
    "byte_fallback": false,
    "ignore_merges": false,
    "vocab": {
      "<pad>": 0,
      "<unk>": 1,
      "<s>": 2,
      "</s>": 3,
      "<2en>": 4,
      "<2pa>": 5,
      "<legal>": 6,
      "<general>": 7,
      "<literal>": 8,
      "<natural>": 9,
      "\n": 10,
      "!": 11,
      "\"": 12,
      "#": 13,
      "$": 14,
      "%": 15,
      "&": 16,
      "'": 17,
      "(": 18,
      ")": 19,
      "*": 20,
      "+": 21,
      ",": 22,
      "-": 23,
      ".": 24,
      "/": 25,
      "0": 26,
      "1": 27,
      "2": 28,
      "3": 29,
      "4": 30,
      "5": 31,
      "6": 32,
      "7": 33,
      "8": 34,
      "9": 35,
      ":": 36,
      ";": 37,
      "<": 38,
      "=": 39,
      ">": 40,
      "?": 41,
      "@": 42,
      "A": 43,
      "B": 44,
      "C": 45,
      "D": 46,
      "E": 47,
      "F": 48,
      "G": 49,
      "H": 50,
      "I": 51,
      "J": 52,
      "K": 53,
      "L": 54,
      "M": 55,
      "N": 56,
      "O": 57,
      "P": 58,
      "Q": 59,
      "R": 60,
      "S": 61,
      "T": 62,
      "U": 63,
      "V": 64,
      "W": 65,
      "X": 66,
      "Y": 67,
      "Z": 68,
      "[": 69,
      "\\": 70,
      "]": 71,
      "_": 72,
      "`": 73,
      "a": 74,
      "b": 75,
      "c": 76,
      "d": 77,
      "e": 78,
      "f": 79,
      "g": 80,
      "h": 81,
      "i": 82,
      "j": 83,
      "k": 84,
      "l": 85,
      "m": 86,
      "n": 87,
      "o": 88,
      "p": 89,
      "q": 90,
      "r": 91,
      "s": 92,
      "t": 93,
      "u": 94,
      "v": 95,
      "w": 96,
      "x": 97,
      "y": 98,
      "z": 99,
      "{": 100,
      "|": 101,
      "}": 102,
      "~": 103,
      "": 104,
      "¢": 105,
      "£": 106,
      "¥": 107,
      "¦": 108,
      "§": 109,
      "©": 110,
      "«": 111,
      "¬": 112,
      "­": 113,
      "®": 114,
      "°": 115,
      "±": 116,
      "²": 117,
      "³": 118,
      "´": 119,
      "µ": 120,
      "¶": 121,
      "·": 122,
      "¸": 123,
      "¹": 124,
      "º": 125,
      "»": 126,
      "¼": 127,
      "½": 128,
      "¾": 129,
      "Á": 130,
      "Ä": 131,
      "Å": 132,
      "Æ": 133,
      "É": 134,
      "Ö": 135,
      "×": 136,
      "Ü": 137,
      "ß": 138,
      "à": 139,
      "á": 140,
      "â": 141,
      "ã": 142,
      "ä": 143,
      "å": 144,
      "æ": 145,
      "ç": 146,
      "è": 147,
      "é": 148,
      "ê": 149,
      "ë": 150,
      "ì": 151,
      "í": 152,
      "î": 153,
      "ï": 154,
      "ñ": 155,
      "ò": 156,
      "ó": 157,
      "ô": 158,
      "ö": 159,
      "ø": 160,
      "ù": 161,
      "ú": 162,
      "û": 163,
      "ü": 164,
      "ý": 165,
      "Ā": 166,
      "ā": 167,
      "ă": 168,
      "ą": 169,
      "ć": 170,
      "Č": 171,
      "č": 172,
      "Đ": 173,
      "ē": 174,
      "ę": 175,
      "ě": 176,
      "ğ": 177,
      "ī": 178,
      "İ": 179,
      "ı": 180,
      "ķ": 181,
      "Ł": 182,
      "ł": 183,
      "ń": 184,
      "ņ": 185,
      "ň": 186,
      "Ō": 187,
      "ō": 188,
      "ő": 189,
      "ŗ": 190,
      "ř": 191,
      "Ś": 192,
      "ś": 193,
      "Ş": 194,
      "ş": 195,
      "Š": 196,
      "š": 197,
      "ū": 198,
      "ů": 199,
      "ŵ": 200,
      "ź": 201,
      "Ż": 202,
      "Ž": 203,
      "ž": 204,
      "ư": 205,
      "ǎ": 206,
      "ǐ": 207,
      "ǝ": 208,
      "ɐ": 209,
      "ɑ": 210,
      "ə": 211,
      "ɻ": 212,
      "ɾ": 213,
      "ʃ": 214,
      "ʋ": 215,
      "ʼ": 216,
      "ʿ": 217,
      "ˉ": 218,
      "ː": 219,
      "˗": 220,
      "˜": 221,
      "́": 222,
      "̥": 223,
      "̺": 224,
      "΄": 225,
      "Β": 226,
      "Δ": 227,
      "Λ": 228,
      "Μ": 229,
      "α": 230,
      "β": 231,
      "γ": 232,
      "δ": 233,
      "ζ": 234,
      "η": 235,
      "μ": 236,
      "ο": 237,
      "τ": 238,
      "φ": 239,
      "ϒ": 240,
      "К": 241,
      "Ч": 242,
      "آ": 243,
      "ا": 244,
      "ب": 245,
      "ت": 246,
      "ج": 247,
      "ح": 248,
      "خ": 249,
      "د": 250,
      "ذ": 251,
      "ر": 252,
      "ز": 253,
      "س": 254,
      "ص": 255,
      "ض": 256,
      "ط": 257,
      "ع": 258,
      "ف": 259,
      "ق": 260,
      "ل": 261,
      "م": 262,
      "ن": 263,
      "ه": 264,
      "و": 265,
      "پ": 266,
      "چ": 267,
      "ڝ": 268,
      "ک": 269,
      "ہ": 270,
      "ی": 271,
      "ं": 272,
      "ः": 273,
      "अ": 274,
      "आ": 275,
      "इ": 276,
      "ई": 277,
      "उ": 278,
      "ऊ": 279,
      "ए": 280,
      "ऐ": 281,
      "ऑ": 282,
      "ओ": 283,
      "औ": 284,
      "क": 285,
      "ख": 286,
      "ग": 287,
      "घ": 288,
      "ङ": 289,
      "च": 290,
      "छ": 291,
      "ज": 292,
      "झ": 293,
      "ञ": 294,
      "ट": 295,
      "ठ": 296,
      "ड": 297,
      "ढ": 298,
      "ण": 299,
      "त": 300,
      "थ": 301,
      "द": 302,
      "ध": 303,
      "न": 304,
      "प": 305,
      "फ": 306,
      "ब": 307,
      "भ": 308,
      "म": 309,
      "य": 310,
      "र": 311,
      "ल": 312,
      "व": 313,
      "श": 314,
      "ष": 315,
      "स": 316,
      "ह": 317,
      "़": 318,
      "ा": 319,
      "ि": 320,
      "ी": 321,
      "ु": 322,
      "ू": 323,
      "ृ": 324,
      "े": 325,
      "ै": 326,
      "ॉ": 327,
      "ो": 328,
      "ौ": 329,
      "्": 330,
      "॒": 331,
      "।": 332,
      "॥": 333,
      "०": 334,
      "१": 335,
      "२": 336,
      "३": 337,
      "४": 338,
      "५": 339,
      "६": 340,
      "७": 341,
      "८": 342,
      "९": 343,
      "ং": 344,
      "অ": 345,
      "আ": 346,
      "ও": 347,
      "ক": 348,
      "গ": 349,
      "ঘ": 350,
      "জ": 351,
      "ঠ": 352,
      "ত": 353,
      "দ": 354,
      "ধ": 355,
      "ন": 356,
      "প": 357,
      "ব": 358,
      "ভ": 359,
      "ম": 360,
      "য": 361,
      "র": 362,
      "ল": 363,
      "শ": 364,
      "স": 365,
      "হ": 366,
      "়": 367,
      "া": 368,
      "ি": 369,
      "ী": 370,
      "ু": 371,
      "ে": 372,
      "্": 373,
      "ৰ": 374,
      "৳": 375,
      "ਁ": 376,
      "ਂ": 377,
      "ਃ": 378,
      "ਅ": 379,
      "ਆ": 380,
      "ਇ": 381,
      "ਈ": 382,
      "ਉ": 383,
      "ਊ": 384,
      "ਏ": 385,
      "ਐ": 386,
      "ਓ": 387,
      "ਔ": 388,
      "ਕ": 389,
      "ਖ": 390,
      "ਗ": 391,
      "ਘ": 392,
      "ਚ": 393,
      "ਛ": 394,
      "ਜ": 395,
      "ਝ": 396,
      "ਞ": 397,
      "ਟ": 398,
      "ਠ": 399,
      "ਡ": 400,
      "ਢ": 401,
      "ਣ": 402,
      "ਤ": 403,
      "ਥ": 404,
      "ਦ": 405,
      "ਧ": 406,
      "ਨ": 407,
      "ਪ": 408,
      "ਫ": 409,
      "ਬ": 410,
      "ਭ": 411,
      "ਮ": 412,
      "ਯ": 413,
      "ਰ": 414,
      "ਲ": 415,
      "ਵ": 416,
      "਷": 417,
      "ਸ": 418,
      "ਹ": 419,
      "਼": 420,
      "ਾ": 421,
      "ਿ": 422,
      "ੀ": 423,
      "ੁ": 424,
      "ੂ": 425,
      "ੇ": 426,
      "ੈ": 427,
      "ੋ": 428,
      "ੌ": 429,
      "੍": 430,
      "ੜ": 431,
      "੦": 432,
      "੧": 433,
      "੨": 434,
      "ੰ": 435,
      "ੱ": 436,
      "ੲ": 437,
      "ੳ": 438,
      "ੴ": 439,
      "ં": 440,
      "આ": 441,
      "એ": 442,
      "ક": 443,
      "ખ": 444,
      "ગ": 445,
      "ઝ": 446,
      "ટ": 447,
      "ડ": 448,
      "ણ": 449,
      "ત": 450,
      "દ": 451,
      "ધ": 452,
      "ન": 453,
      "ફ": 454,
      "બ": 455,
      "મ": 456,
      "ય": 457,
      "ર": 458,
      "વ": 459,
      "શ": 460,
      "ષ": 461,
      "સ": 462,
      "હ": 463,
      "ા": 464,
      "િ": 465,
      "ી": 466,
      "ુ": 467,
      "ે": 468,
      "ો": 469,
      "્": 470,
      "૨": 471,
      "ட": 472,
      "ண": 473,
      "த": 474,
      "ம": 475,
      "ர": 476,
      "ல": 477,
      "ழ": 478,
      "வ": 479,
      "ா": 480,
      "ி": 481,
      "ு": 482,
      "ே": 483,
      "்": 484,
      "ం": 485,
      "క": 486,
      "ణ": 487,
      "త": 488,
      "య": 489,
      "ల": 490,
      "ళ": 491,
      "స": 492,
      "ా": 493,
      "ి": 494,
      "ు": 495,
      "్": 496,
      "ಡ": 497,
      "ದ": 498,
      "ಬ": 499,
      "ಮ": 500,
      "ರ": 501,
      "ಿ": 502,
      "ು": 503,
      "ೂ": 504,
      "ೆ": 505,
      "ം": 506,
      "ക": 507,
      "ത": 508,
      "ഥ": 509,
      "പ": 510,
      "യ": 511,
      "ള": 512,
      "ി": 513,
      "ൂ": 514,
      "ൈ": 515,
      "്": 516,
      "ḍ": 517,
      "Ḥ": 518,
      "ḥ": 519,
      "ḷ": 520,
      "ḻ": 521,
      "ṁ": 522,
      "ṃ": 523,
      "ṅ": 524,
      "ṇ": 525,
      "ṉ": 526,
      "Ṛ": 527,
      "ṛ": 528,
      "ṟ": 529,
      "ṣ": 530,
      "ṫ": 531,
      "ṭ": 532,
      "ả": 533,
      "ọ": 534,
      "ỗ": 535,
      "ờ": 536,
      "ở": 537,
      "ứ": 538,
      "​": 539,
      "‌": 540,
      "‍": 541,
      "‎": 542,
      "‐": 543,
      "‑": 544,
      "–": 545,
      "—": 546,
      "―": 547,
      "‖": 548,
      "‗": 549,
      "‘": 550,
      "’": 551,
      "‚": 552,
      "“": 553,
      "”": 554,
      "„": 555,
      "‟": 556,
      "†": 557,
      "•": 558,
      "…": 559,
      "‪": 560,
      "‰": 561,
      "′": 562,
      "″": 563,
      "⁄": 564,
      "⁴": 565,
      "₨": 566,
      "₩": 567,
      "€": 568,
      "₹": 569,
      "ℑ": 570,
      "№": 571,
      "™": 572,
      "⅔": 573,
      "→": 574,
      "↵": 575,
      "−": 576,
      "√": 577,
      "∞": 578,
      "≈": 579,
      "≥": 580,
      "⋅": 581,
      "─": 582,
      "▁": 583,
      "■": 584,
      "●": 585,
      "★": 586,
      "♣": 587,
      "♦": 588,
      "俠": 589,
      "可": 590,
      "小": 591,
      "慧": 592,
      "武": 593,
      "波": 594,
      "珍": 595,
      "膏": 596,
      "說": 597,
      "調": 598,
      "閻": 599,
      "": 600,
      "ﬁ": 601,
      "�": 602,
      "▁t": 603,
      "he": 604,
      "▁ਦ": 605,
      "▁ਕ": 606,
      "▁a": 607,
      "▁the": 608,
      "▁ਸ": 609,
      "in": 610,
      "▁o": 611,
      "▁ਨ": 612,
      "▁ਹ": 613,
      "re": 614,
      "▁ਵ": 615,
      "on": 616,
      "▁ਅ": 617,
      ".\n": 618,
      "ਾਂ": 619,
      "at": 620,
      "er": 621,
      "en": 622,
      "▁ਜ": 623,
      "ed": 624,
      "▁of": 625,
      "ਾਰ": 626,
      "is": 627,
      "▁ਪ": 628,
      "▁ਇ": 629,
      "▁s": 630,
      "it": 631,
      "▁c": 632,
      "▁ਵਿ": 633,
      "▁p": 634,
      "▁w": 635,
      "ਤੇ": 636,
      "▁b": 637,
      "▁ਦੇ": 638,
      "ion": 639,
      "▁ਹੈ": 640,
      "nd": 641,
      "▁ਮ": 642,
      "▁in": 643,
      "ਸ਼": 644,
      "ੂੰ": 645,
      "▁f": 646,
      "or": 647,
      "ਿਆ": 648,
      "es": 649,
      "▁to": 650,
      "al": 651,
      "ar": 652,
      "as": 653,
      "▁ਤ": 654,
      "▁ਲ": 655,
      "an": 656,
      "▁ਉ": 657,
      "▁ਦੀ": 658,
      "▁d": 659,
      "ਾਲ": 660,
      "▁ਕਿ": 661,
      "ing": 662,
      "ou": 663,
      "▁ਨੂੰ": 664,
      "ਰਾ": 665,
      "▁ਗ": 666,
      "ent": 667,
      "▁ਬ": 668,
      "ic": 669,
      "ਤਾ": 670,
      "ਤੀ": 671,
      "▁ਅਤੇ": 672,
      "▁and": 673,
      "▁th": 674,
      "▁ਕਰ": 675,
      "▁h": 676,
      "▁re": 677,
      "ਦਾ": 678,
      "▁m": 679,
      "le": 680,
      "ct": 681,
      "▁be": 682,
      "▁ਕੀ": 683,
      "▁n": 684,
      "ro": 685,
      "ਹੀ": 686,
      "ੋਂ": 687,
      "▁is": 688,
      "੍ਰ": 689,
      "▁ਵਿਚ": 690,
      "।\n": 691,
      "▁ਰ": 692,
      "▁ਦਾ": 693,
      "▁ਸੀ": 694,
      "▁ਇਸ": 695,
      "id": 696,
      "ਿੱ": 697,
      "▁that": 698,
      "ot": 699,
      "▁ਆ": 700,
      "ce": 701,
      "▁1": 702,
      "▁e": 703,
      "ੱਚ": 704,
      "▁ਲਈ": 705,
      "st": 706,
      "▁T": 707,
      "▁C": 708,
      "ਆਂ": 709,
      "▁ਇਹ": 710,
      "ਜ਼": 711,
      "▁ਹੋ": 712,
      "ation": 713,
      "ਦੇ": 714,
      "▁S": 715,
      "▁ਵਿੱਚ": 716,
      "il": 717,
      "▁2": 718,
      "ut": 719,
      "ਹੀਂ": 720,
      "ve": 721,
      "om": 722,
      "ਵਾ": 723,
      "▁(": 724,
      "▁ਨਹੀਂ": 725,
      "▁on": 726,
      "▁ਕਰਨ": 727,
      "ment": 728,
      "▁ਜਾਂ": 729,
      "se": 730,
      "ਰੀ": 731,
      "▁con": 732,
      "▁A": 733,
      "▁ਨੇ": 734,
      "▁l": 735,
      "pp": 736,
      "▁for": 737,
      "▁by": 738,
      "im": 739,
      "▁ਪ੍ਰ": 740,
      "ly": 741,
      "▁ਤੋਂ": 742,
      "ਕਾਰ": 743,
      "ad": 744,
      "▁I": 745,
      "ਾਨ": 746,
      "▁de": 747,
      "▁su": 748,
      "▁ਚ": 749,
      "▁as": 750,
      "ਦੀ": 751,
      "ਟੀ": 752,
      "ur": 753,
      "▁ਜਾ": 754,
      "▁was": 755,
      "▁ਦੁ": 756,
      "▁not": 757,
      "▁pro": 758,
      "▁it": 759,
      "▁The": 760,
      "▁'": 761,
      "▁or": 762,
      "▁ਉਸ": 763,
      "੍ਹ": 764,
      "▁ਨਿ": 765,
      "et": 766,
      "ll": 767,
      "▁ਸ਼": 768,
      "our": 769,
      "▁u": 770,
      "▁ਗਿਆ": 771,
      "ੱਕ": 772,
      "▁g": 773,
      "ant": 774,
      "her": 775,
      "ate": 776,
      "▁ਕੋ": 777,
      "ਹਿ": 778,
      "ੱਖ": 779,
      "▁an": 780,
      "▁ਖ": 781,
      "am": 782,
      "ig": 783,
      "▁ਦਿੱ": 784,
      "▁ਦੁਆ": 785,
      "▁ਕੀਤਾ": 786,
      "▁ਦੁਆਰਾ": 787,
      "ਵੇ": 788,
      "▁ਮੁ": 789,
      "▁P": 790,
      "ਲਾ": 791,
      "ਸ਼ਨ": 792,
      "ਣਾ": 793,
      "▁app": 794,
      "▁ਨਾਲ": 795,
      "ch": 796,
      "▁wh": 797,
      "ver": 798,
      "00": 799,
      "▁ਹੈ.\n": 800,
      "▁wit": 801,
      "ay": 802,
      "ੀਲ": 803,
      "ain": 804,
      "ਿਸ": 805,
      "▁ਭ": 806,
      "ਕਰ": 807,
      "ld": 808,
      "ter": 809,
      "▁ਅਧ": 810,
      "if": 811,
      "▁ਕੀਤੀ": 812,
      "ir": 813,
      "▁ਸੰ": 814,
      "▁ਹਨ": 815,
      "ੈਂ": 816,
      "▁st": 817,
      "ere": 818,
      "▁ਸਕ": 819,
      "ਹਾ": 820,
      "01": 821,
      "ow": 822,
      "▁with": 823,
      "▁ਫ": 824,
      "▁ਵੀ": 825,
      "▁ਐ": 826,
      "ਿੰ": 827,
      "▁ਸਮ": 828,
      "ourt": 829,
      "▁'ਤੇ": 830,
      "੍ਹਾਂ": 831,
      "ect": 832,
      "▁.\n": 833,
      "ri": 834,
      "▁ਅਪ": 835,
      "▁ਜ਼": 836,
      "ਿਆਂ": 837,
      "ਨੀ": 838,
      "ਾਮ": 839,
      "▁he": 840,
      "qu": 841,
      "▁M": 842,
      "ers": 843,
      "▁R": 844,
      "us": 845,
      "▁\"": 846,
      "▁ਇਕ": 847,
      "▁has": 848,
      "ul": 849,
      "▁ex": 850,
      "ਤਰ": 851,
      "ਲੇ": 852,
      "ess": 853,
      "ab": 854,
      "ਸੀ": 855,
      "ition": 856,
      "▁ਰਾ": 857,
      "ra": 858,
      "▁com": 859,
      "▁ਗਈ": 860,
      "res": 861,
      "ਸੇ": 862,
      "▁al": 863,
      "▁।\n": 864,
      "▁H": 865,
      "▁ਹੈ,": 866,
      "▁ha": 867,
      "▁v": 868,
      "ated": 869,
      "▁,": 870,
      ".2": 871,
      "▁Court": 872,
      "ol": 873,
      "▁ਤੇ": 874,
      "▁ਕੇ": 875,
      "ge": 876,
      "▁B": 877,
      "ud": 878,
      "ਾਇ": 879,
      "cc": 880,
      "ਿਕ": 881,
      "▁D": 882,
      "▁ਕਾਰ": 883,
      "ther": 884,
      "ted": 885,
      "▁-": 886,
      "▁N": 887,
      "ak": 888,
      "ਾਈ": 889,
      "ਬੰ": 890,
      "▁ਇੱਕ": 891,
      "ore": 892,
      "ਿਤ": 893,
      "ity": 894,
      "▁le": 895,
      "▁are": 896,
      "▁ਡ": 897,
      "ਿਰ": 898,
      "▁ਉਹ": 899,
      "ich": 900,
      "ਾਰੀ": 901,
      "os": 902,
      "▁res": 903,
      "ੁੰ": 904,
      "ਟਰ": 905,
      "end": 906,
      "▁ਜੋ": 907,
      ".1": 908,
      "▁sh": 909,
      "and": 910,
      "▁ਧ": 911,
      "▁which": 912,
      "est": 913,
      "ਲੀ": 914,
      "▁this": 915,
      "ਕਰਤਾ": 916,
      "ist": 917,
      "ਗਾ": 918,
      "ਾਅ": 919,
      "ਿਕਾਰ": 920,
      "ould": 921,
      "▁at": 922,
      "▁ਆਪ": 923,
      "ਾਲਤ": 924,
      "ਵਾਂ": 925,
      "igh": 926,
      "ell": 927,
      "▁19": 928,
      "ਨਾ": 929,
      "▁ਅਪੀਲ": 930,
      "ਬੰਧ": 931,
      "ਗੀ": 932,
      "▁ਸੁ": 933,
      "rom": 934,
      "▁ਅਦ": 935,
      "▁ਕੋਈ": 936,
      "ence": 937,
      "▁ਦੋ": 938,
      "art": 939,
      "ਦੇਸ਼": 940,
      "iv": 941,
      "ase": 942,
      "▁ਅਦਾਲਤ": 943,
      "ec": 944,
      "ਨ੍ਹਾਂ": 945,
      "la": 946,
      "od": 947,
      "▁j": 948,
      "pon": 949,
      "▁ਵਾਲ": 950,
      "aid": 951,
      "▁there": 952,
      "▁from": 953,
      "ies": 954,
      "ਣੇ": 955,
      "ice": 956,
      "▁have": 957,
      "▁3": 958,
      "oun": 959,
      "nder": 960,
      "ੀਨ": 961,
      "ਕਤ": 962,
      "▁ਦਿੱਤਾ": 963,
      "▁ਕਿਸੇ": 964,
      "ੇਸ਼": 965,
      "red": 966,
      "▁been": 967,
      "▁ਨਿਰ": 968,
      "▁ਜਿਸ": 969,
      "▁ਯ": 970,
      "um": 971,
      "▁r": 972,
      "▁G": 973,
      "so": 974,
      "ਟੀਸ਼ਨ": 975,
      "ਰਟ": 976,
      "ial": 977,
      "▁ਪਟੀਸ਼ਨ": 978,
      "ਰੇ": 979,
      "ive": 980,
      "ਬਰ": 981,
      "etition": 982,
      "▁ਹੈ।\n": 983,
      "▁sub": 984,
      "▁any": 985,
      "ned": 986,
      "▁cont": 987,
      "ਕਤੀ": 988,
      "▁ਘ": 989,
      "▁In": 990,
      "ard": 991,
      "▁fa": 992,
      "ction": 993,
      "▁ਗਏ": 994,
      "ust": 995,
      "all": 996,
      "▁under": 997,
      "▁acc": 998,
      "ਾਨੂੰ": 999,
      "▁ਰਿ": 1000,
      "ੂਰ": 1001,
      "▁ਅਨ": 1002,
      "ੁੱ": 1003,
      "▁ਅਧਿਕਾਰ": 1004,
      "ort": 1005,
      "▁dis": 1006,
      "ਣੀ": 1007,
      "ਕਿ": 1008,
      "▁ਤਰ": 1009,
      "ੈਸ": 1010,
      "ਾਹ": 1011,
      "pl": 1012,
      "ਉਂ": 1013,
      "ਦਰ": 1014,
      "▁ਦਰ": 1015,
      "▁ਮੰ": 1016,
      "un": 1017,
      "▁ਸਰ": 1018,
      "▁case": 1019,
      "▁ਸਕਦਾ": 1020,
      "ord": 1021,
      "▁ਜਿ": 1022,
      "▁also": 1023,
      "em": 1024,
      "mit": 1025,
      "▁ਪਹਿ": 1026,
      "ਾਰੇ": 1027,
      "ਉਣ": 1028,
      "▁ਨਿਯ": 1029,
      "ਲਾਂ": 1030,
      "ਾਸ": 1031,
      "▁whe": 1032,
      "ill": 1033,
      "ੌਰ": 1034,
      "s.\n": 1035,
      "▁ਕੀਤੇ": 1036,
      "▁ਲਾ": 1037,
      "▁petition": 1038,
      "▁/": 1039,
      "ੋਗ": 1040,
      "ance": 1041,
      "▁i": 1042,
      "▁ad": 1043,
      "▁ਦਿੱਤੀ": 1044,
      "▁201": 1045,
      "▁ਅਨੁ": 1046,
      "▁O": 1047,
      "ਾਰਾ": 1048,
      "▁per": 1049,
      "fore": 1050,
      "ff": 1051,
      "ear": 1052,
      "ie": 1053,
      "ure": 1054,
      "ਨੇ": 1055,
      "able": 1056,
      "▁had": 1057,
      "▁ਮੈਂ": 1058,
      "der": 1059,
      "▁ਉਪ": 1060,
      "ੁਰ": 1061,
      "ਮਾ": 1062,
      "ਸਾ": 1063,
      "▁ਟ": 1064,
      "▁ਅੰ": 1065,
      "▁ab": 1066,
      "▁his": 1067,
      "ਇਆ": 1068,
      "s,": 1069,
      "ਭਾ": 1070,
      "ision": 1071,
      "▁ਰਾਜ": 1072,
      "▁ਤੌਰ": 1073,
      "ਾਅਦ": 1074,
      "▁ਪੀ": 1075,
      "▁It": 1076,
      "▁ਬਾਅਦ": 1077,
      "▁no": 1078,
      "▁ag": 1079,
      "ੱਦ": 1080,
      "ame": 1081,
      "ਵੇਂ": 1082,
      "▁ਉਨ੍ਹਾਂ": 1083,
      "▁ਪਰ": 1084,
      "ੈਕ": 1085,
      "ਮੀ": 1086,
      "▁J": 1087,
      "▁can": 1088,
      "▁ਕੁ": 1089,
      "▁ਅਜ": 1090,
      "▁part": 1091,
      "ਡੀ": 1092,
      "੍ਰਾ": 1093,
      "▁L": 1094,
      "▁ਹੁੰ": 1095,
      "▁ਕੰ": 1096,
      "▁said": 1097,
      "th": 1098,
      "lic": 1099,
      "ary": 1100,
      "▁y": 1101,
      "sion": 1102,
      "▁such": 1103,
      "▁ਸਥ": 1104,
      "oc": 1105,
      "▁ਨੰ": 1106,
      "▁ev": 1107,
      "▁were": 1108,
      "▁ch": 1109,
      "ellant": 1110,
      "▁im": 1111,
      "▁ਸਨ": 1112,
      "op": 1113,
      "ਾਰਤ": 1114,
      "▁ਕਿਹਾ": 1115,
      "ਕੇ": 1116,
      "▁ਸੀ।\n": 1117,
      "ਨਾਂ": 1118,
      "▁all": 1119,
      "ee": 1120,
      "mis": 1121,
      "gh": 1122,
      "▁ਸੀ.\n": 1123,
      "▁ਕਾਨੂੰ": 1124,
      "▁W": 1125,
      "▁ਚਾ": 1126,
      "ੱਥ": 1127,
      "ਸ਼ੀ": 1128,
      "▁ਦੀਆਂ": 1129,
      "▁ਜਾਂਦਾ": 1130,
      "ire": 1131,
      "▁int": 1132,
      "▁prov": 1133,
      "▁ਕੇਸ": 1134,
      "▁ਤਾਂ": 1135,
      "pond": 1136,
      "ਪਤ": 1137,
      "▁rec": 1138,
      "ਗੇ": 1139,
      "▁ਰੱਖ": 1140,
      "▁ਅਸ": 1141,
      "▁F": 1142,
      "over": 1143,
      ".0": 1144,
      "ਿਲ": 1145,
      "▁ਮੌ": 1146,
      "ਰੋ": 1147,
      "ution": 1148,
      "ਵੀ": 1149,
      "▁ਹੋਣ": 1150,
      "ੱਸ": 1151,
      "▁ਚਾਹੀ": 1152,
      "pondent": 1153,
      "ਸਾਰ": 1154,
      "▁E": 1155,
      "▁am": 1156,
      "▁ਕੋਰਟ": 1157,
      "▁ar": 1158,
      "pt": 1159,
      "su": 1160,
      "▁ਹੋਰ": 1161,
      "▁St": 1162,
      "▁K": 1163,
      "▁ਅਜਿ": 1164,
      "▁other": 1165,
      ".201": 1166,
      "ਪੀ": 1167,
      "ੱਲ": 1168,
      "▁appellant": 1169,
      "ight": 1170,
      "▁comp": 1171,
      "▁cons": 1172,
      "ਮੇ": 1173,
      "▁200": 1174,
      "used": 1175,
      "ਬਲ": 1176,
      "ia": 1177,
      "▁dec": 1178,
      "▁order": 1179,
      "ade": 1180,
      "per": 1181,
      "ਿਤੀ": 1182,
      "▁would": 1183,
      "▁4": 1184,
      "▁ਸਾ": 1185,
      "ac": 1186,
      "▁ਪ੍ਰਾ": 1187,
      "▁5": 1188,
      "▁ਵਿਅ": 1189,
      "ਦੋਂ": 1190,
      "▁ਹਾਂ": 1191,
      "▁ਵਿਅਕਤੀ": 1192,
      "ag": 1193,
      "▁ਅਨੁਸਾਰ": 1194,
      "ਰਤ": 1195,
      "▁ਉੱ": 1196,
      "▁ਅਧੀਨ": 1197,
      "▁ਤਰ੍ਹਾਂ": 1198,
      "▁ਸੀ,": 1199,
      "▁No": 1200,
      "ੀਆਂ": 1201,
      "ਵਾਬ": 1202,
      "▁ਮੈ": 1203,
      "▁ਵਜ": 1204,
      "ਜੀ": 1205,
      "▁ਆਪਣੇ": 1206,
      "▁inc": 1207,
      "▁ਅਪੀਲਕਰਤਾ": 1208,
      "fter": 1209,
      "aw": 1210,
      "ਸ਼ਟ": 1211,
      "▁ਜੇ": 1212,
      "ous": 1213,
      "ਯੂ": 1214,
      "▁ਵਿਚਾਰ": 1215,
      "▁ਜਾਣ": 1216,
      "▁ਜਵਾਬ": 1217,
      "▁ਐਕ": 1218,
      "sed": 1219,
      "du": 1220,
      "ੇਂ": 1221,
      "▁ਹੀ": 1222,
      "erson": 1223,
      "sel": 1224,
      "erv": 1225,
      "ਦਾਰ": 1226,
      "▁ਸਿੱ": 1227,
      "ough": 1228,
      "ict": 1229,
      "▁k": 1230,
      "ਹੁ": 1231,
      "ound": 1232,
      "▁qu": 1233,
      "▁off": 1234,
      "▁ਨਿਯਮ": 1235,
      "▁ਵਾਲੇ": 1236,
      "▁ਸਿ": 1237,
      "ੂਰੀ": 1238,
      "▁respondent": 1239,
      "▁ਸਾਲ": 1240,
      "ਵਾਈ": 1241,
      "ied": 1242,
      "▁ਜਦੋਂ": 1243,
      "ਖਿਆ": 1244,
      "ਕਾ": 1245,
      "▁ਨਾ": 1246,
      "ਨੂੰ": 1247,
      "▁Th": 1248,
      "▁se": 1249,
      "▁ਸਰਕਾਰ": 1250,
      "▁imp": 1251,
      "▁en": 1252,
      "▁ਸਿਰ": 1253,
      "▁ਫੈਸ": 1254,
      "▁ਅੱ": 1255,
      "ru": 1256,
      "▁person": 1257,
      "▁ਮਾਮ": 1258,
      "ide": 1259,
      "▁reg": 1260,
      "▁ਕਰਨਾ": 1261,
      "ਿਆਨ": 1262,
      "ount": 1263,
      "ਹੇ": 1264,
      "ib": 1265,
      "▁ਸਪ": 1266,
      "ਬਲਯੂ": 1267,
      "▁un": 1268,
      "▁ਪੇਸ਼": 1269,
      "▁made": 1270,
      "▁tak": 1271,
      "▁ਵਿਸ਼": 1272,
      "▁ਉਸਨੇ": 1273,
      "overn": 1274,
      "▁ਪਹਿਲਾਂ": 1275,
      "out": 1276,
      "ime": 1277,
      "▁sp": 1278,
      "▁do": 1279,
      "▁ਏ": 1280,
      "ਿੰਗ": 1281,
      "▁ne": 1282,
      "ਫ਼": 1283,
      "▁ਹਨ.\n": 1284,
      "mitted": 1285,
      "▁fact": 1286,
      "▁ਬਿ": 1287,
      "ip": 1288,
      "ree": 1289,
      "oin": 1290,
      "▁ਵੱਖ": 1291,
      "ੋਟ": 1292,
      "▁ਖੇ": 1293,
      "ection": 1294,
      "▁who": 1295,
      "▁ਵਜੋਂ": 1296,
      "▁Ind": 1297,
      "▁may": 1298,
      "▁ਕਰਦਾ": 1299,
      "age": 1300,
      "▁ਆਦੇਸ਼": 1301,
      "▁ਸੰਬੰਧ": 1302,
      "▁pres": 1303,
      "ced": 1304,
      "ੱਟ": 1305,
      "▁ਲੋ": 1306,
      "▁accused": 1307,
      "▁gr": 1308,
      "▁mat": 1309,
      "▁ਪਟੀਸ਼ਨਕਰਤਾ": 1310,
      "▁jud": 1311,
      "▁ਪੈ": 1312,
      "ind": 1313,
      "ਜ਼ਾ": 1314,
      "▁ਵਾ": 1315,
      "ਜੂ": 1316,
      "aint": 1317,
      "ered": 1318,
      "ident": 1319,
      "ਸੀਂ": 1320,
      "iff": 1321,
      "▁ਸਮੇਂ": 1322,
      "▁tr": 1323,
      "੍ਰੀ": 1324,
      "▁ਦੇਣ": 1325,
      "ਾਇਆ": 1326,
      "▁ob": 1327,
      "ific": 1328,
      "ub": 1329,
      "▁lear": 1330,
      "ome": 1331,
      "▁pl": 1332,
      "▁ਰਿਹਾ": 1333,
      "▁ਦੱਸ": 1334,
      "▁.": 1335,
      "▁State": 1336,
      "▁rel": 1337,
      "▁ਚਾਹੀਦਾ": 1338,
      "▁ਪਾ": 1339,
      "▁ਨੰਬਰ": 1340,
      "pect": 1341,
      "▁ਦੋਸ਼ੀ": 1342,
      "▁ਆਰ": 1343,
      "ੋਰ": 1344,
      "\"\n": 1345,
      "mission": 1346,
      "▁rep": 1347,
      "rit": 1348,
      "stit": 1349,
      "▁ਲੈ": 1350,
      "▁pre": 1351,
      "overnment": 1352,
      "▁ਛ": 1353,
      "▁ਬਣਾ": 1354,
      "▁its": 1355,
      "ੁਕ": 1356,
      "ਗੂ": 1357,
      "▁ਮੁਕ": 1358,
      "▁learned": 1359,
      "▁ਧਾਰਾ": 1360,
      "▁Com": 1361,
      "▁their": 1362,
      "ਥਾ": 1363,
      "orm": 1364,
      "ally": 1365,
      "ost": 1366,
      "▁ਪ੍ਰਾਪਤ": 1367,
      "▁Act": 1368,
      "ased": 1369,
      "▁out": 1370,
      "▁ਦਿ": 1371,
      "▁ਅਰ": 1372,
      "ਧਾਨ": 1373,
      "▁ਹੋਏ": 1374,
      "▁6": 1375,
      "▁ਐਕਟ": 1376,
      "use": 1377,
      "▁ਹਾਲ": 1378,
      "▁ਕਿਉਂ": 1379,
      "▁ਜ਼ਰ": 1380,
      "istr": 1381,
      "99": 1382,
      "ਬੂ": 1383,
      "ੰਗ": 1384,
      "el": 1385,
      "ਵਿ": 1386,
      "▁only": 1387,
      ".200": 1388,
      "ਤਾਂ": 1389,
      "▁ਵੇ": 1390,
      "ਵੇਗਾ": 1391,
      "▁petitioner": 1392,
      "ਜਾ": 1393,
      "▁before": 1394,
      "▁ਲਈ,": 1395,
      "▁dated": 1396,
      "▁ਕੁਝ": 1397,
      "▁ਵਕ": 1398,
      "▁again": 1399,
      "ove": 1400,
      "ਜੇ": 1401,
      "▁shall": 1402,
      "ਕੀ": 1403,
      "▁ਸਕਦੀ": 1404,
      "▁law": 1405,
      "▁ਬਹੁ": 1406,
      "▁def": 1407,
      "▁ਹੁੰਦਾ": 1408,
      "੍ਹਾ": 1409,
      "▁ਕਾਨੂੰਨ": 1410,
      "▁High": 1411,
      "▁U": 1412,
      "ail": 1413,
      "▁ਜਿਵੇਂ": 1414,
      "▁ਸਿਰਫ": 1415,
      "ose": 1416,
      "▁ਬਾਰੇ": 1417,
      "ations": 1418,
      "▁same": 1419,
      "ans": 1420,
      "▁ਕਿਉਂਕਿ": 1421,
      "▁consid": 1422,
      "▁ਮੁਕੱਦ": 1423,
      "▁pr": 1424,
      "▁but": 1425,
      "▁ਵਕੀਲ": 1426,
      "▁ਹਾਈ": 1427,
      "▁year": 1428,
      "▁one": 1429,
      "▁so": 1430,
      "▁we": 1431,
      "ject": 1432,
      "▁ਕਾਰਨ": 1433,
      "▁time": 1434,
      "▁ਵਧ": 1435,
      "▁issu": 1436,
      "▁ent": 1437,
      "ਕਾਂ": 1438,
      "ces": 1439,
      "▁ਵਿੱਚ,": 1440,
      "one": 1441,
      "▁me": 1442,
      "ish": 1443,
      "▁ਕੰਮ": 1444,
      "▁ਮੰਨ": 1445,
      "▁will": 1446,
      "▁ਪੱਖ": 1447,
      "ong": 1448,
      "ਮਾਨ": 1449,
      "idence": 1450,
      "▁ਸ਼ਾਮ": 1451,
      "ੁਪ": 1452,
      "▁ਜਾਂਚ": 1453,
      "ੁਲ": 1454,
      "iz": 1455,
      "ਵਰ": 1456,
      "ਅਰ": 1457,
      "▁7": 1458,
      "iew": 1459,
      "▁ca": 1460,
      "▁ਲਾਗੂ": 1461,
      "▁Government": 1462,
      "▁ਅਸੀਂ": 1463,
      "uth": 1464,
      "▁him": 1465,
      "ਭਾਵ": 1466,
      "▁if": 1467,
      "▁applic": 1468,
      "▁ਜਾਰੀ": 1469,
      "ਵਾਰ": 1470,
      "ty": 1471,
      "ਆਈ": 1472,
      "eal": 1473,
      "ਇਰ": 1474,
      "ੰਡ": 1475,
      "▁fil": 1476,
      "▁ac": 1477,
      "ਡਬਲਯੂ": 1478,
      "▁ref": 1479,
      "▁inv": 1480,
      "▁they": 1481,
      "▁ਅੱਗੇ": 1482,
      "ments": 1483,
      "▁ਸਬੰਧ": 1484,
      "▁ਹਿੱ": 1485,
      "▁her": 1486,
      "▁court": 1487,
      "ha": 1488,
      "▁ਭਾ": 1489,
      "ue": 1490,
      "▁ਤੱਕ": 1491,
      "▁ind": 1492,
      "▁after": 1493,
      "nt": 1494,
      "ੱਤ": 1495,
      "▁ਬਹੁਤ": 1496,
      "ੱਧ": 1497,
      "ention": 1498,
      "ile": 1499,
      "urther": 1500,
      "ਪੋ": 1501,
      "ਰੋਕਤ": 1502,
      "▁ਸਮਝ": 1503,
      "ਦਿਆਂ": 1504,
      "ult": 1505,
      "▁right": 1506,
      "▁ਬੇ": 1507,
      "▁ਉਪਰੋਕਤ": 1508,
      "▁ਉਕਤ": 1509,
      "ness": 1510,
      "ਯੋਗ": 1511,
      "▁V": 1512,
      "▁ਸ਼ਾਮਲ": 1513,
      "ise": 1514,
      "▁ਆਪਣੀ": 1515,
      "ਜ਼ੀ": 1516,
      "pos": 1517,
      "ਾਂਕਿ": 1518,
      "▁ਐਸ": 1519,
      "▁against": 1520,
      "ੁਣ": 1521,
      "ੋਜ": 1522,
      "ੜੀ": 1523,
      "▁ਤੱਥ": 1524,
      "▁cla": 1525,
      "▁ਜਾਂਦੀ": 1526,
      "▁He": 1527,
      "uthor": 1528,
      "▁ਬਚ": 1529,
      "▁conc": 1530,
      "▁ਹਾਲਾਂਕਿ": 1531,
      "ਾਤ": 1532,
      "ਵਾਲ": 1533,
      "▁(1": 1534,
      "▁record": 1535,
      "▁ਲਿਆ": 1536,
      "▁ਸਾਰੇ": 1537,
      "not": 1538,
      "ber": 1539,
      "ounsel": 1540,
      "▁requ": 1541,
      "ious": 1542,
      "▁evidence": 1543,
      "▁ਯੋਗ": 1544,
      "▁ਲਿ": 1545,
      "▁ਸਬੂ": 1546,
      "▁ਮੌਜੂ": 1547,
      "hed": 1548,
      "▁ਸੋ": 1549,
      "▁go": 1550,
      "▁10": 1551,
      "ਡੇ": 1552,
      "ory": 1553,
      "▁ਵਿਕ": 1554,
      "▁ਸੇ": 1555,
      "▁ਜਵਾਬਦੇ": 1556,
      "▁pur": 1557,
      "▁ਦੂ": 1558,
      "ਰਾਧ": 1559,
      "ine": 1560,
      "ed.\n": 1561,
      "--": 1562,
      "▁pos": 1563,
      "▁where": 1564,
      "ਥੇ": 1565,
      "ok": 1566,
      "▁As": 1567,
      "▁em": 1568,
      "▁wor": 1569,
      "▁ਮਨ": 1570,
      "form": 1571,
      "▁pas": 1572,
      "▁ਦਿੱਤੇ": 1573,
      "▁judg": 1574,
      "ating": 1575,
      "▁ਨਿਰਧ": 1576,
      "▁ਦੱਸਿਆ": 1577,
      "▁ਖੇਤਰ": 1578,
      "ates": 1579,
      "▁ਹੇ": 1580,
      "ach": 1581,
      "ਸਤ": 1582,
      "▁inter": 1583,
      "ical": 1584,
      "▁ਸਥਿਤੀ": 1585,
      "▁0": 1586,
      "ep": 1587,
      "▁man": 1588,
      "▁ਅਧਾਰ": 1589,
      "ਟੇ": 1590,
      "▁provision": 1591,
      "▁India": 1592,
      "ੁੱਧ": 1593,
      "ਕਾਰੀ": 1594,
      "▁8": 1595,
      "ਆਰ": 1596,
      "▁ਦਾਇਰ": 1597,
      "▁ਅਪਰਾਧ": 1598,
      "▁cannot": 1599,
      "▁ਇੰ": 1600,
      "tain": 1601,
      "oint": 1602,
      "▁being": 1603,
      "▁ਜਨ": 1604,
      "▁ਨਿਰਧਾਰਤ": 1605,
      "),": 1606,
      "▁ਕਮ": 1607,
      "ason": 1608,
      "▁ਕਾਰਵਾਈ": 1609,
      "ਤਮ": 1610,
      "▁sc": 1611,
      "ਿਸ਼": 1612,
      "ਟਾ": 1613,
      "▁ass": 1614,
      "ract": 1615,
      "▁ਹੋਇਆ": 1616,
      "▁ਗਵਾ": 1617,
      "▁ਵਿਚ,": 1618,
      "▁ਜਵਾਬਦੇਹ": 1619,
      "▁should": 1620,
      "▁dire": 1621,
      "stitution": 1622,
      "?\n": 1623,
      "▁li": 1624,
      "੍ਰਿਤ": 1625,
      "▁giv": 1626,
      "inal": 1627,
      "▁There": 1628,
      "ged": 1629,
      "ਾਲੀ": 1630,
      "▁ਹੇਠ": 1631,
      "▁ਵਰਤ": 1632,
      "▁when": 1633,
      "estion": 1634,
      "▁ਬੈਂ": 1635,
      "ceed": 1636,
      "ਾਦ": 1637,
      "▁ਸਪੱ": 1638,
      "▁ਨੋਟ": 1639,
      "▁further": 1640,
      "rib": 1641,
      "▁ਵਿਆ": 1642,
      "▁Con": 1643,
      "▁ਰੋ": 1644,
      "ry": 1645,
      "ਿਆਰ": 1646,
      "▁view": 1647,
      "ੰਦ": 1648,
      "nce": 1649,
      "ast": 1650,
      "av": 1651,
      "ਬੀ": 1652,
      "ਸਥਾ": 1653,
      "▁ਜਾਇ": 1654,
      "▁tw": 1655,
      "▁ਆਮ": 1656,
      "ਸਤਾ": 1657,
      "ੱਜ": 1658,
      "ੜੇ": 1659,
      "oy": 1660,
      "▁pla": 1661,
      "▁state": 1662,
      "very": 1663,
      "▁ਮਾਮਲੇ": 1664,
      "▁9": 1665,
      "▁counsel": 1666,
      "▁ਦਾਅ": 1667,
      "fore,": 1668,
      ".\"\n": 1669,
      "▁land": 1670,
      "ੈਰ": 1671,
      "ings": 1672,
      "▁matter": 1673,
      "▁ਮਿਤੀ": 1674,
      "me": 1675,
      "▁disc": 1676,
      "og": 1677,
      "▁199": 1678,
      "▁Ch": 1679,
      "▁mak": 1680,
      "▁ਹਨ,": 1681,
      "-1": 1682,
      "▁ਅਜਿਹੀ": 1683,
      "ly,": 1684,
      "ਵਾਨ": 1685,
      "are": 1686,
      "..": 1687,
      "▁This": 1688,
      "ward": 1689,
      "r.": 1690,
      "▁ਕਾ": 1691,
      "▁pol": 1692,
      "▁ਭਾਰਤ": 1693,
      "▁act": 1694,
      "ities": 1695,
      "▁ਲਗ": 1696,
      "▁present": 1697,
      "ਖੇ": 1698,
      "▁ਇਲਾ": 1699,
      "ign": 1700,
      "▁reason": 1701,
      "▁15": 1702,
      "▁ਮੈਨੂੰ": 1703,
      "ath": 1704,
      "▁filed": 1705,
      "▁ਸਪੱਸ਼ਟ": 1706,
      "▁them": 1707,
      "▁leg": 1708,
      "▁decision": 1709,
      "▁ਪੜ": 1710,
      "ession": 1711,
      "▁serv": 1712,
      "ਹਿਤ": 1713,
      "▁proper": 1714,
      "▁writ": 1715,
      "sec": 1716,
      "▁about": 1717,
      "▁into": 1718,
      "ute": 1719,
      "ever": 1720,
      "ੂਲ": 1721,
      "▁12": 1722,
      "▁judgment": 1723,
      "▁ਪ੍ਰਤੀ": 1724,
      "▁ਕਰਦੇ": 1725,
      "▁question": 1726,
      "▁stated": 1727,
      "dition": 1728,
      "▁Sh": 1729,
      "▁taken": 1730,
      "▁ਮਹ": 1731,
      "irst": 1732,
      "ਨਾਮ": 1733,
      "▁appeal": 1734,
      "ਪਤੀ": 1735,
      "▁submitted": 1736,
      "▁two": 1737,
      "▁pay": 1738,
      "▁ਕੰਪ": 1739,
      "▁ਪ੍ਰਬੰਧ": 1740,
      "ਾਰਟੀ": 1741,
      "▁ਮ੍ਰਿਤ": 1742,
      "▁bec": 1743,
      "੍ਰਿ": 1744,
      "▁(2": 1745,
      "rial": 1746,
      "ublic": 1747,
      "▁ਸੇਵਾ": 1748,
      "▁ਫ਼": 1749,
      "▁proceed": 1750,
      "▁ਵਿਸ਼ੇਸ਼": 1751,
      "▁ਜੱਜ": 1752,
      "ੱਗ": 1753,
      "▁PW": 1754,
      "▁set": 1755,
      "▁ਤਕ": 1756,
      "ਐਸ": 1757,
      "ਪੋਰਟ": 1758,
      "▁ਗਵਾਹ": 1759,
      "es,": 1760,
      "▁comm": 1761,
      "▁author": 1762,
      "▁held": 1763,
      "▁ਸਬੰਧਤ": 1764,
      "own": 1765,
      "ਲਿਆਂ": 1766,
      "▁Jud": 1767,
      "▁ਮੰਨਿਆ": 1768,
      "ਜ਼ਰ": 1769,
      "ਮੀਨ": 1770,
      "▁witness": 1771,
      "▁ਸਬੂਤ": 1772,
      "▁she": 1773,
      "▁could": 1774,
      "cted": 1775,
      "▁ਆਈ": 1776,
      "▁ter": 1777,
      "▁ਘੱਟ": 1778,
      "amin": 1779,
      "ੱਤਰ": 1780,
      "▁rem": 1781,
      "000": 1782,
      "▁work": 1783,
      "▁ਜ਼ਰੂਰ": 1784,
      "▁ਵਿਰ": 1785,
      "▁dece": 1786,
      "led": 1787,
      "▁11": 1788,
      "▁ਮੁਦ": 1789,
      "ਚਿਤ": 1790,
      "es.\n": 1791,
      "▁ਵਿਰੁੱਧ": 1792,
      "ਕਲ": 1793,
      "▁Su": 1794,
      "eg": 1795,
      "▁spec": 1796,
      "een": 1797,
      "▁these": 1798,
      "ਡਰ": 1799,
      "ular": 1800,
      "▁ਕਾਨੂੰਨੀ": 1801,
      "▁ਦਿੰ": 1802,
      "▁ਦਰਜ": 1803,
      "▁consider": 1804,
      "ਪੂਰ": 1805,
      "▁ਹਨ।\n": 1806,
      "▁bet": 1807,
      "▁ਸਹਿ": 1808,
      "▁ਪ੍ਰਭਾਵ": 1809,
      "lud": 1810,
      "ਕਣ": 1811,
      "vel": 1812,
      "▁claim": 1813,
      "ਾਇਤ": 1814,
      "ਜਿਸ": 1815,
      "ank": 1816,
      "▁up": 1817,
      "▁deceased": 1818,
      "▁ਮ੍ਰਿਤਕ": 1819,
      "▁ਸ੍ਰੀ": 1820,
      "old": 1821,
      "ative": 1822,
      "ved": 1823,
      "min": 1824,
      "ੇਟ": 1825,
      "▁ਉਦੇਸ਼": 1826,
      "▁ਫੈਸਲੇ": 1827,
      "ual": 1828,
      "▁ਸੂ": 1829,
      "▁ਵਰਤੋਂ": 1830,
      "▁pow": 1831,
      "ond": 1832,
      "ੁਰੂ": 1833,
      "▁ਜ਼ਮੀਨ": 1834,
      "iction": 1835,
      "▁cl": 1836,
      "▁over": 1837,
      "▁ਉਲ": 1838,
      "▁ਵਿਦ": 1839,
      "wn": 1840,
      "ation.\n": 1841,
      "▁ਡੀ": 1842,
      "ਸਟ": 1843,
      "▁above": 1844,
      "ਖੀ": 1845,
      "▁exp": 1846,
      "ef": 1847,
      "ired": 1848,
      "▁char": 1849,
      "▁just": 1850,
      "rough": 1851,
      "ffect": 1852,
      "ਮਤ": 1853,
      "▁ਕੰਪਨੀ": 1854,
      "▁fo": 1855,
      "▁prosec": 1856,
      "▁ਵਰ": 1857,
      "ਧੀ": 1858,
      "ffic": 1859,
      "ark": 1860,
      "▁ਕਰਕੇ": 1861,
      "▁ਰਹੇ": 1862,
      "▁regard": 1863,
      "▁ਬਿਆਨ": 1864,
      "▁ਡਿ": 1865,
      "▁ਠ": 1866,
      "▁18": 1867,
      "▁ਲੈਣ": 1868,
      "▁compl": 1869,
      "ਰਾਨ": 1870,
      "▁given": 1871,
      "▁ਬੀ": 1872,
      "▁ਹੱਕ": 1873,
      "aj": 1874,
      "ਾਰਜ": 1875,
      "▁ਤਹਿਤ": 1876,
      "▁suit": 1877,
      "ack": 1878,
      "▁trans": 1879,
      "ex": 1880,
      "▁respect": 1881,
      "ਵਾਦ": 1882,
      "ci": 1883,
      "▁ਕੋਲ": 1884,
      "▁ਮੁਦਈ": 1885,
      "▁ਦੌ": 1886,
      "▁ਸਾਹ": 1887,
      "▁ਰੁਪ": 1888,
      "▁ਅੰਦਰ": 1889,
      "▁op": 1890,
      "▁upon": 1891,
      "▁14": 1892,
      "ility": 1893,
      "ਕਮ": 1894,
      "ਪਰ": 1895,
      "ਿਕਾਰਡ": 1896,
      "▁ਜਾਣਾ": 1897,
      "ation,": 1898,
      "▁ਝ": 1899,
      "▁ਧਿਰ": 1900,
      "▁ਰਿਕਾਰਡ": 1901,
      "▁poss": 1902,
      "▁first": 1903,
      "▁ਯੂ": 1904,
      "erred": 1905,
      "owever": 1906,
      "ised": 1907,
      ".3": 1908,
      "irc": 1909,
      "ੋਲ": 1910,
      "▁ਰੂ": 1911,
      "▁ਰੁਪਏ": 1912,
      "ible": 1913,
      "ens": 1914,
      "▁ਰਿਪੋਰਟ": 1915,
      "▁ਸ਼ਿਕ": 1916,
      "▁even": 1917,
      "ਹੁੰ": 1918,
      "▁ਨਿਯੁ": 1919,
      "▁diff": 1920,
      "any": 1921,
      "▁ਦਲ": 1922,
      "▁ਉੱਤੇ": 1923,
      "▁Sing": 1924,
      "▁cle": 1925,
      "▁On": 1926,
      "aintiff": 1927,
      "▁ਦਰਸਾ": 1928,
      "ving": 1929,
      "▁must": 1930,
      "ਲਜ਼": 1931,
      "ਾਰੀਆਂ": 1932,
      "ature": 1933,
      "ang": 1934,
      "ਵਿਧਾਨ": 1935,
      "▁ਕਾਰਜ": 1936,
      "ug": 1937,
      "▁ਮਾਰ": 1938,
      "▁ਸ਼ੁਰੂ": 1939,
      "ੈਂਟ": 1940,
      "cy": 1941,
      "▁ਅਸਲ": 1942,
      "▁ਪੂ": 1943,
      ").\n": 1944,
      "ke": 1945,
      "endant": 1946,
      "ified": 1947,
      "▁ਤੁ": 1948,
      "ਸ਼ਾ": 1949,
      "▁20": 1950,
      "uring": 1951,
      ".199": 1952,
      "▁ਪਿ": 1953,
      "▁ext": 1954,
      "▁[": 1955,
      "ੰਤਰ": 1956,
      "ploy": 1957,
      "▁ਸਕਦੇ": 1958,
      "▁ਪੂਰੀ": 1959,
      "ਦਾਦ": 1960,
      "▁well": 1961,
      "ਦਾਨ": 1962,
      "▁ਅਜਿਹੇ": 1963,
      "▁ਖੁ": 1964,
      "▁ਜ਼ਰੂਰਤ": 1965,
      "▁ਮੇ": 1966,
      "▁ra": 1967,
      "▁appro": 1968,
      "▁ਦਲੀਲ": 1969,
      "▁ਫੈਸਲਾ": 1970,
      "▁ਸੰਵਿਧਾਨ": 1971,
      "▁Rs": 1972,
      "ween": 1973,
      "▁ਪ੍ਰਕ": 1974,
      "ax": 1975,
      "ild": 1976,
      "▁ਮੌਜੂਦਾ": 1977,
      "erest": 1978,
      "▁att": 1979,
      "ended": 1980,
      "▁ਜਾਇਦਾਦ": 1981,
      "▁ਖ਼": 1982,
      "▁between": 1983,
      "ਧਾਰ": 1984,
      "▁ਰੱਦ": 1985,
      "ਇਕ": 1986,
      "ਹੁੰਚ": 1987,
      "▁ਪੀਡਬਲਯੂ": 1988,
      "▁ਪਹੁੰਚ": 1989,
      "eral": 1990,
      "▁some": 1991,
      "▁ਨਿਰਦੇਸ਼": 1992,
      "▁amount": 1993,
      "▁ਮਾਲ": 1994,
      "▁ਸਿੰ": 1995,
      "▁ਹੈ\n": 1996,
      "ided": 1997,
      "ਾਹਰ": 1998,
      "ਬਾ": 1999,
      "ays": 2000,
      "ੋਣ": 2001,
      "ਗਰ": 2002,
      "▁kn": 2003,
      "▁ਮੁਕੱਦਮਾ": 2004,
      "ven": 2005,
      "▁does": 2006,
      "▁ਉੱਤਰ": 2007,
      "▁supp": 2008,
      "cept": 2009,
      "▁ਅਧਿਕਾਰੀ": 2010,
      "ording": 2011,
      "ਿਸ਼ਨ": 2012,
      "▁sec": 2013,
      "▁ਸਮਝੌ": 2014,
      "▁ਨਿਆਂ": 2015,
      "▁ਮੰਗ": 2016,
      "▁13": 2017,
      "▁ਸਹੀ": 2018,
      "▁ਹੁੰਦੀ": 2019,
      "pre": 2020,
      "ite": 2021,
      "▁within": 2022,
      "▁ਸਾਹਮ": 2023,
      "ਾਪ": 2024,
      "iod": 2025,
      "ਲਾਈ": 2026,
      "ap": 2027,
      "▁ਇਲਾਵਾ": 2028,
      "ਮਾਂ": 2029,
      "▁passed": 2030,
      "▁circ": 2031,
      "ੈਕਸ": 2032,
      "▁clear": 2033,
      "▁ਜ਼ਿੰ": 2034,
      "▁ਬਾ": 2035,
      "▁30": 2036,
      "▁ਪਾਸ": 2037,
      "▁date": 2038,
      "▁ਗੱਲ": 2039,
      "▁ਸਭ": 2040,
      "▁ਸ਼ਿਕਾਇਤ": 2041,
      "▁period": 2042,
      "▁ਰੂਪ": 2043,
      "▁interest": 2044,
      "act": 2045,
      "ink": 2046,
      "oth": 2047,
      "▁more": 2048,
      "owever,": 2049,
      "rim": 2050,
      "ances": 2051,
      "▁bas": 2052,
      "▁ਹੋਈ": 2053,
      "▁whether": 2054,
      "▁ਪੁਲ": 2055,
      "ting": 2056,
      "ational": 2057,
      "▁ਦੌਰਾਨ": 2058,
      "erc": 2059,
      "▁find": 2060,
      "▁16": 2061,
      "▁ਸ਼ਕਤੀ": 2062,
      "▁ਇਨ": 2063,
      "ited": 2064,
      "▁ਪ੍ਰਕਿਰ": 2065,
      "▁ਹਾਲਾਂਕਿ,": 2066,
      "▁ਸਮਰ": 2067,
      "ਖਲ": 2068,
      "▁ਰਕਮ": 2069,
      "▁ਪੰ": 2070,
      "▁ਧਿਆਨ": 2071,
      "▁ਜਿੱ": 2072,
      "▁parties": 2073,
      "▁cas": 2074,
      "▁application": 2075,
      "▁ਜਮ": 2076,
      "▁ਲਗਾ": 2077,
      "▁ਹੋਵੇਗਾ": 2078,
      "▁public": 2079,
      "▁ਪੁਲਿਸ": 2080,
      "▁ਸਜ਼ਾ": 2081,
      "▁ro": 2082,
      "▁ਨਤੀ": 2083,
      "▁We": 2084,
      "▁employ": 2085,
      "▁ਬਣ": 2086,
      "▁grant": 2087,
      "▁ਹਰ": 2088,
      "▁Ex": 2089,
      "ਤਕ": 2090,
      "▁Mr.": 2091,
      "▁did": 2092,
      "▁provisions": 2093,
      "ਟਨਾ": 2094,
      "ਲਾਂਕਣ": 2095,
      "▁ਨਾਮ": 2096,
      "ਮਾਣ": 2097,
      "▁ਗੈਰ": 2098,
      "▁inform": 2099,
      "▁ਕਰੇ": 2100,
      "▁ਕਮਿਸ਼ਨ": 2101,
      "▁ਵਾਪ": 2102,
      "▁ਗਲ": 2103,
      "▁ਪਾਲ": 2104,
      "▁prosecution": 2105,
      "/2": 2106,
      "▁conf": 2107,
      "ਮਰ": 2108,
      "ਗਿਆ": 2109,
      "ors": 2110,
      "▁found": 2111,
      "▁plaintiff": 2112,
      "ecess": 2113,
      "ily": 2114,
      "▁ਵਾਰ": 2115,
      "▁ਮੁਕੱਦਮੇ": 2116,
      "▁concer": 2117,
      "ੱਦੇ": 2118,
      "▁ਵੱਧ": 2119,
      "▁ਬਿਨਾਂ": 2120,
      "li": 2121,
      "▁examin": 2122,
      "ਧਾਂ": 2123,
      "▁invest": 2124,
      "ਜ਼ਾਂ": 2125,
      "▁ਮੁਲਾਂਕਣ": 2126,
      "ian": 2127,
      "▁ਕਰਦਿਆਂ": 2128,
      "'s": 2129,
      "▁our": 2130,
      "▁ਹਵਾਲ": 2131,
      "▁17": 2132,
      "ਸ਼ਟਰ": 2133,
      "▁25": 2134,
      "▁ਵਿਅਕਤੀਆਂ": 2135,
      "bit": 2136,
      "ife": 2137,
      "ਬਿ": 2138,
      "ੱਡ": 2139,
      "ਬਤ": 2140,
      "▁ਅਦਾ": 2141,
      "ah": 2142,
      "-2": 2143,
      "▁ਚੀ": 2144,
      "ale": 2145,
      "੍ਰੇ": 2146,
      "▁ਵੱਲ": 2147,
      "ior": 2148,
      "llow": 2149,
      "▁ਮਹੱਤ": 2150,
      "▁App": 2151,
      "▁ਜੁ": 2152,
      "▁cer": 2153,
      "icial": 2154,
      "▁mem": 2155,
      "▁198": 2156,
      "▁val": 2157,
      "ule": 2158,
      "a,": 2159,
      "ਅਤ": 2160,
      "▁ਲਾਭ": 2161,
      "▁includ": 2162,
      "▁ਅਗ": 2163,
      "▁ਚੋਣ": 2164,
      "▁ਬਾਅਦ,": 2165,
      "▁ਜੀ": 2166,
      "stru": 2167,
      "ief": 2168,
      "▁Section": 2169,
      "▁power": 2170,
      "▁ਓ": 2171,
      "▁ਨਿਯਮਾਂ": 2172,
      "ਜ਼ੇ": 2173,
      "▁ਮਿਲ": 2174,
      "▁ਸੁਰ": 2175,
      "▁ਸਿੰਘ": 2176,
      "ੌਂ": 2177,
      "leg": 2178,
      "▁(1)": 2179,
      "▁ਰਹੀ": 2180,
      ",000": 2181,
      "▁ਅਨੁਸਾਰ,": 2182,
      "▁ਸੁਣ": 2183,
      "▁ਰਹਿ": 2184,
      "▁ਸ਼੍ਰੀ": 2185,
      "▁ਉਸਦੇ": 2186,
      "ms": 2187,
      "▁ਕੇਂ": 2188,
      "▁ਦੋਸ਼": 2189,
      "▁report": 2190,
      "ਨੀਅਰ": 2191,
      "▁ਚਾਹੀਦੀ": 2192,
      "▁then": 2193,
      "▁produ": 2194,
      "ੰਤ": 2195,
      "▁ਮੌਤ": 2196,
      "▁ਪੁ": 2197,
      "▁Ad": 2198,
      "▁ਰੱਖਿਆ": 2199,
      "ained": 2200,
      "▁ਵਾਲੀ": 2201,
      "▁circum": 2202,
      "erence": 2203,
      "▁than": 2204,
      "ਬੇ": 2205,
      "▁trial": 2206,
      "▁follow": 2207,
      "ਛਾ": 2208,
      "▁ਜ਼ਰੂਰੀ": 2209,
      "▁defendant": 2210,
      "▁without": 2211,
      "ਟਾਂ": 2212,
      "▁effect": 2213,
      "▁place": 2214,
      "ਉਂਦਾ": 2215,
      "ਕਰਾਰ": 2216,
      "▁No.": 2217,
      "▁ਅੰਤਰ": 2218,
      "▁appear": 2219,
      "▁ਬਦ": 2220,
      "ph": 2221,
      "▁inj": 2222,
      "▁ਉਸਨੂੰ": 2223,
      "ification": 2224,
      "ਿੱਟ": 2225,
      "▁ਕਹਿ": 2226,
      "▁ਉਤ": 2227,
      "ater": 2228,
      "ince": 2229,
      "▁ਮਿ": 2230,
      "▁ਨੋਟਿਸ": 2231,
      "▁Un": 2232,
      "▁ground": 2233,
      "▁No.1": 2234,
      "ਮਾਰ": 2235,
      "▁ਅਥ": 2236,
      "▁ਬੁ": 2237,
      "▁disp": 2238,
      "ਸ਼ਤ": 2239,
      "▁ਮੈਂਬਰ": 2240,
      "▁Singh": 2241,
      "▁necess": 2242,
      "▁occ": 2243,
      "▁ਡਾ": 2244,
      "ash": 2245,
      "ਿੰਨ": 2246,
      "▁ਸਾਹਮਣੇ": 2247,
      "▁ਮਹੱਤਵ": 2248,
      "▁post": 2249,
      "▁ਆਗਿਆ": 2250,
      "▁circumst": 2251,
      "▁here": 2252,
      "▁Pr": 2253,
      "▁te": 2254,
      "▁property": 2255,
      "abl": 2256,
      "▁De": 2257,
      "▁ਪਰਿ": 2258,
      "ody": 2259,
      "▁ਚਲਾ": 2260,
      "▁ਭੁ": 2261,
      "▁est": 2262,
      "▁ਤਬ": 2263,
      "▁ਮੁਲਜ਼": 2264,
      "self": 2265,
      "▁Res": 2266,
      "▁ਪ੍ਰਕਿਰਿਆ": 2267,
      "▁(ਸ": 2268,
      "▁Pro": 2269,
      "▁therefore,": 2270,
      "▁ਸਰਕਾਰੀ": 2271,
      "▁ਇਨ੍ਹਾਂ": 2272,
      "ouse": 2273,
      "bitr": 2274,
      "ਵਲ": 2275,
      "velop": 2276,
      "▁ਹੋਣਾ": 2277,
      "ੈਲ": 2278,
      "▁ਸੁਪ": 2279,
      "▁bel": 2280,
      "▁you": 2281,
      "▁af": 2282,
      "▁ਸਿਧਾਂ": 2283,
      "▁rece": 2284,
      "▁pri": 2285,
      "ਦਾਤਾ": 2286,
      "▁ਵਿਵਾਦ": 2287,
      "ਤਾਨ": 2288,
      "▁hand": 2289,
      "▁P.": 2290,
      "▁ਜ਼ਿੰਮੇ": 2291,
      "▁like": 2292,
      "▁ਸਹਾ": 2293,
      "ient": 2294,
      "ਮਚ": 2295,
      "▁while": 2296,
      "ful": 2297,
      "ਜਿਸਟਰ": 2298,
      "▁ਫਰ": 2299,
      "▁ਘਰ": 2300,
      "▁ਪੱਤਰ": 2301,
      "▁mon": 2302,
      "▁ਹੋਵੇ": 2303,
      "▁through": 2304,
      "▁par": 2305,
      "▁ਰਿੱਟ": 2306,
      "▁persons": 2307,
      "▁years": 2308,
      "▁ਅਥਾਰਟੀ": 2309,
      "▁?\n": 2310,
      "ੌਤੀ": 2311,
      "▁ਚੰ": 2312,
      "ਫਲ": 2313,
      "▁ਵਿਵ": 2314,
      "por": 2315,
      "▁issued": 2316,
      "▁own": 2317,
      "ਵੀਕਾਰ": 2318,
      "▁sent": 2319,
      "▁ret": 2320,
      "ores": 2321,
      "▁ਘਟਨਾ": 2322,
      "hi": 2323,
      "▁partic": 2324,
      "ocu": 2325,
      "▁form": 2326,
      "ੜਾ": 2327,
      "▁Judge": 2328,
      "cess": 2329,
      "▁stat": 2330,
      "▁ਅਰਜ਼ੀ": 2331,
      "▁basis": 2332,
      "▁allow": 2333,
      "▁ਉਸਦੀ": 2334,
      "▁ਤਿਆਰ": 2335,
      "▁ਦਸਤਾ": 2336,
      "ਸਲ": 2337,
      "▁prin": 2338,
      "▁Ben": 2339,
      "▁statement": 2340,
      "ਟਰੀ": 2341,
      "ਮਤੀ": 2342,
      "▁Commission": 2343,
      "▁ਥ": 2344,
      "▁ਕਬ": 2345,
      "▁ਦਸਤਾਵੇ": 2346,
      "▁rele": 2347,
      "▁ਪਟੀਸ਼ਨਰ": 2348,
      "▁cor": 2349,
      "▁des": 2350,
      "ਚੀ": 2351,
      "other": 2352,
      "▁ਸਾਡੇ": 2353,
      "▁agree": 2354,
      "▁ਦਾਅਵਾ": 2355,
      "▁22": 2356,
      "▁pe": 2357,
      "ਸਰ": 2358,
      "▁ਜਿਨ੍ਹਾਂ": 2359,
      "▁An": 2360,
      "▁min": 2361,
      "▁ਬਚਾ": 2362,
      "▁docu": 2363,
      "▁ਤੱਥਾਂ": 2364,
      "▁ਟੈਕਸ": 2365,
      "ass": 2366,
      "ਫਿਕ": 2367,
      "▁ਹਮ": 2368,
      "▁ਰਾਸ਼ਟਰ": 2369,
      "▁ਮਾਮਲਿਆਂ": 2370,
      "und": 2371,
      "ਰੀਮ": 2372,
      "ੈਕਟਰ": 2373,
      "▁21": 2374,
      "▁ਮਹੱਤਵਪੂਰ": 2375,
      "urn": 2376,
      "▁ਪਤਾ": 2377,
      "▁facts": 2378,
      "▁‘": 2379,
      "▁ਸੁਰੱਖ": 2380,
      "uted": 2381,
      "ause": 2382,
      "▁petitioners": 2383,
      "sequ": 2384,
      "▁police": 2385,
      "isl": 2386,
      "mitt": 2387,
      "▁ਪੁੱ": 2388,
      "▁ਪ੍ਰਸ਼ਨ": 2389,
      "ਹਾਰ": 2390,
      "▁appoint": 2391,
      "▁ਸ਼ਰਤ": 2392,
      "▁ਕਰਮਚ": 2393,
      "▁contract": 2394,
      "▁ear": 2395,
      "▁concerned": 2396,
      "▁ਲਿਖ": 2397,
      "▁what": 2398,
      "ਮੇਟੀ": 2399,
      "▁make": 2400,
      "▁ਪ੍ਰਦਾਨ": 2401,
      "▁show": 2402,
      "ੈਨ": 2403,
      "▁-1": 2404,
      "▁ਟੀ": 2405,
      "▁authority": 2406,
      "▁ਦੂਜੇ": 2407,
      "▁ਭੁਗ": 2408,
      "▁av": 2409,
      "oresaid": 2410,
      "▁take": 2411,
      "▁ਸਨ।\n": 2412,
      "ix": 2413,
      "▁24": 2414,
      "▁ਜਾਵੇਗਾ": 2415,
      "▁good": 2416,
      "ੰਘ": 2417,
      "▁ਸਨ.\n": 2418,
      "▁ਕਮੇਟੀ": 2419,
      "▁aforesaid": 2420,
      "▁differe": 2421,
      "▁both": 2422,
      "▁gu": 2423,
      "----": 2424,
      "erial": 2425,
      "▁ben": 2426,
      "3)": 2427,
      "ਮੁ": 2428,
      "ਬਦ": 2429,
      "▁ਫ਼ੈਸ": 2430,
      "vers": 2431,
      "lect": 2432,
      "▁think": 2433,
      "▁ਜ਼ਿਲ": 2434,
      "▁ਭੇ": 2435,
      "pose": 2436,
      "▁notice": 2437,
      "ਲਬ": 2438,
      "▁Offic": 2439,
      "▁hold": 2440,
      "▁ਅਜਿਹਾ": 2441,
      "ral": 2442,
      "istrict": 2443,
      "ਨੈ": 2444,
      ".ਐ": 2445,
      "▁ਸੋਧ": 2446,
      "▁ਸੁਪਰੀਮ": 2447,
      "▁ਅਣ": 2448,
      "▁ਐਮ": 2449,
      "▁co": 2450,
      "uris": 2451,
      "▁ਬੇਨ": 2452,
      "▁case,": 2453,
      "its": 2454,
      "▁stand": 2455,
      "▁having": 2456,
      "▁ord": 2457,
      "▁ਵਾਪਸ": 2458,
      "esh": 2459,
      "reat": 2460,
      "▁cro": 2461,
      "ੋਬ": 2462,
      "▁ਕੀਤੀਆਂ": 2463,
      "▁ਡਬਲਯੂ": 2464,
      "▁considered": 2465,
      "▁ਫਿਰ": 2466,
      "▁see": 2467,
      ".12": 2468,
      "ood": 2469,
      "▁different": 2470,
      "▁ਹੈ.": 2471,
      "▁ਸੰਸਥਾ": 2472,
      "▁ਪੂਰਾ": 2473,
      "▁ਲੋਕਾਂ": 2474,
      "ew": 2475,
      "▁ਸਵੀਕਾਰ": 2476,
      "ges": 2477,
      "hal": 2478,
      ".10": 2479,
      "ਟੀਫਿਕ": 2480,
      "ram": 2481,
      "ਉਣਾ": 2482,
      "▁very": 2483,
      "▁ਬੈਂਚ": 2484,
      "▁ਕਰਦੀ": 2485,
      "▁though": 2486,
      "ਲਾਹ": 2487,
      "▁ਗੁ": 2488,
      "▁ਕਈ": 2489,
      "ਵੀਂ": 2490,
      "▁circumstances": 2491,
      "▁ਧਿਰਾਂ": 2492,
      "▁ਜਾਣਕਾਰੀ": 2493,
      "▁need": 2494,
      "▁during": 2495,
      "▁name": 2496,
      "▁obs": 2497,
      "▁car": 2498,
      ".19": 2499,
      "▁investig": 2500,
      "▁ਤਰੀ": 2501,
      "▁ਕੈ": 2502,
      "▁acqu": 2503,
      "▁ਵਿਕਾਸ": 2504,
      "▁material": 2505,
      "▁exerc": 2506,
      "▁required": 2507,
      "▁dep": 2508,
      "▁197": 2509,
      "ੰਭ": 2510,
      "▁ਸਿੱਖਿਆ": 2511,
      "ਅਨ": 2512,
      "▁offence": 2513,
      "▁ਜਾਵੇ": 2514,
      "mittee": 2515,
      "▁because": 2516,
      "lection": 2517,
      "▁ਚੁਣ": 2518,
      "▁issue": 2519,
      "▁ਭੁਗਤਾਨ": 2520,
      "ਸੂ": 2521,
      "▁ਬਾਹਰ": 2522,
      "ook": 2523,
      "▁aff": 2524,
      "▁service": 2525,
      "▁my": 2526,
      "▁var": 2527,
      "▁ਉਪ-": 2528,
      "ished": 2529,
      "con": 2530,
      "▁purpose": 2531,
      "▁exec": 2532,
      "▁ਪੈਦਾ": 2533,
      "▁ਵਿਖੇ": 2534,
      "▁ਐਲ": 2535,
      "ਮੀਦ": 2536,
      ".5": 2537,
      "▁ਸਮਾ": 2538,
      "▁subject": 2539,
      "-ਵ": 2540,
      "▁Ar": 2541,
      "▁account": 2542,
      "▁those": 2543,
      "ਾਇਰ": 2544,
      "▁ਉਮੀਦ": 2545,
      "ਖਾ": 2546,
      "after": 2547,
      "▁ਹਿੱਸੇ": 2548,
      "ital": 2549,
      "▁rev": 2550,
      "ric": 2551,
      "▁ਸਲਾਹ": 2552,
      "▁31": 2553,
      "ਾਰਕ": 2554,
      "bers": 2555,
      "▁three": 2556,
      "ress": 2557,
      "enior": 2558,
      "ople": 2559,
      "▁ਨਿਯੁਕਤੀ": 2560,
      "▁ਤਿੰਨ": 2561,
      "▁ਜਾਏ": 2562,
      "▁appellants": 2563,
      "▁ਰਾਸ਼ਟਰਪਤੀ": 2564,
      "▁comple": 2565,
      "▁Act,": 2566,
      "▁ਐਨ": 2567,
      "▁deal": 2568,
      "vant": 2569,
      "▁ਬੇਨਤੀ": 2570,
      "▁necessary": 2571,
      "ady": 2572,
      "▁ਚੁ": 2573,
      "▁juris": 2574,
      "▁opin": 2575,
      "▁23": 2576,
      "▁condition": 2577,
      "▁ਵਿਭਾ": 2578,
      "har": 2579,
      "ਜ਼ਮੀ": 2580,
      "ither": 2581,
      "ment.\n": 2582,
      "▁(2)": 2583,
      "▁ਪਿਛ": 2584,
      "▁offic": 2585,
      "▁However,": 2586,
      "▁ਕਰੋ": 2587,
      "▁gen": 2588,
      "▁“": 2589,
      "▁col": 2590,
      "ੋਜਨਾ": 2591,
      "▁Whe": 2592,
      "lus": 2593,
      "▁ਹਿੱਸਾ": 2594,
      "▁process": 2595,
      "▁ਹਵਾਲਾ": 2596,
      "ਿਆਦ": 2597,
      "▁ਮਾਨ": 2598,
      "▁ਉੱਚ": 2599,
      "ural": 2600,
      "▁Acc": 2601,
      "te": 2602,
      "riminal": 2603,
      "▁ਇੱਥ": 2604,
      "ੇਸ਼ਨ": 2605,
      "▁benef": 2606,
      "anc": 2607,
      "▁ਮੁੱਖ": 2608,
      "▁ਲਾਜ਼ਮੀ": 2609,
      "▁ਯੋਜਨਾ": 2610,
      "▁inst": 2611,
      "▁ਮੁਲਜ਼ਮ": 2612,
      "▁ਵਿਦਵਾਨ": 2613,
      "▁sit": 2614,
      "▁ਹੁਣ": 2615,
      "▁ਰੁ": 2616,
      "▁arbitr": 2617,
      "▁ਹੈ।": 2618,
      "▁ins": 2619,
      "▁ਬਰਾ": 2620,
      ".ਸੀ": 2621,
      "▁Court.\n": 2622,
      "ਤਰੀ": 2623,
      "▁ਸਮਝੌਤੇ": 2624,
      "y,": 2625,
      "▁establ": 2626,
      "diction": 2627,
      "pra": 2628,
      "▁house": 2629,
      "y.\n": 2630,
      "/-": 2631,
      "▁det": 2632,
      "▁ਦਿਨ": 2633,
      "▁(P": 2634,
      "▁call": 2635,
      "▁down": 2636,
      "▁ਗਈਆਂ": 2637,
      "▁27": 2638,
      "▁ਕੋਸ਼": 2639,
      "▁ਵਿਚੋਂ": 2640,
      "▁Constitution": 2641,
      "▁us": 2642,
      "▁ਭਰੋ": 2643,
      "▁ਬਚਾਓ": 2644,
      "▁ਇਕਰਾਰ": 2645,
      "ugned": 2646,
      "▁ਮੁਆ": 2647,
      "▁del": 2648,
      "▁Bench": 2649,
      "▁let": 2650,
      "▁ਨਤੀਜੇ": 2651,
      "▁SC": 2652,
      "▁mark": 2653,
      "ai": 2654,
      "ivil": 2655,
      "iet": 2656,
      ".,": 2657,
      "▁dismis": 2658,
      "▁ਵਿਵਸਥਾ": 2659,
      "▁ਮੌਜੂਦ": 2660,
      "▁observ": 2661,
      "▁day": 2662,
      "▁death": 2663,
      "▁ਜਨਤਕ": 2664,
      "▁count": 2665,
      "hip": 2666,
      "__": 2667,
      "▁get": 2668,
      "▁ਦੇਸ਼": 2669,
      "▁ਵਾਲਿਆਂ": 2670,
      "ਨਾਮੇ": 2671,
      "ed,": 2672,
      "▁ਬਚਾਅ": 2673,
      "▁Reg": 2674,
      "▁people": 2675,
      "umar": 2676,
      "ਗਤ": 2677,
      "▁impugned": 2678,
      "er,": 2679,
      "▁inf": 2680,
      "▁ਵਾਲਾ": 2681,
      "ੋਸ਼": 2682,
      "▁month": 2683,
      "▁ਕੋਸ਼ਿਸ਼": 2684,
      "▁dem": 2685,
      "▁jurisdiction": 2686,
      "▁action": 2687,
      "▁ਤਬਦੀ": 2688,
      "ability": 2689,
      "ointed": 2690,
      "▁back": 2691,
      "ules": 2692,
      "▁ਹੁੰਦੇ": 2693,
      "man": 2694,
      "▁28": 2695,
      "gu": 2696,
      "▁ਜ਼ਿਲ੍ਹਾ": 2697,
      "ister": 2698,
      "▁ਵਿਚਕਾਰ": 2699,
      "▁ਜਿੱਥੇ": 2700,
      "▁new": 2701,
      "▁ਭਾਵ": 2702,
      "ending": 2703,
      ".11": 2704,
      "▁Petition": 2705,
      "▁ਹੇਠਲੀ": 2706,
      "ਿਡ": 2707,
      "▁ਭਾਰ": 2708,
      "▁submission": 2709,
      "▁ਲੱਗ": 2710,
      "allen": 2711,
      "▁26": 2712,
      "▁award": 2713,
      "ੰਦਾ": 2714,
      "▁condu": 2715,
      "▁ਬਿਨੈ": 2716,
      "▁ਉਹਨਾਂ": 2717,
      "▁ਜਮ੍ਹਾ": 2718,
      "▁ਹੁਕ": 2719,
      "▁196": 2720,
      "▁bl": 2721,
      "ith": 2722,
      "preme": 2723,
      "▁ਕਿਰਾ": 2724,
      "▁ਬੈਂਕ": 2725,
      "med": 2726,
      "▁tax": 2727,
      "▁ਦੋਵਾਂ": 2728,
      "ption": 2729,
      "▁direct": 2730,
      "▁ਕੱ": 2731,
      "▁ਵੱ": 2732,
      "▁ਮਹੀ": 2733,
      "▁ਆਦ": 2734,
      "bt": 2735,
      "▁ਲੱ": 2736,
      "▁due": 2737,
      "▁used": 2738,
      "ੈਂਸ": 2739,
      "ਵਨ": 2740,
      "▁Cent": 2741,
      "▁195": 2742,
      "ੁੱਲ": 2743,
      "ss": 2744,
      "▁ਸਕੇ": 2745,
      ".4": 2746,
      "▁ਸ਼ਬਦ": 2747,
      "▁ਖਾਰਜ": 2748,
      "ੰਘਣਾ": 2749,
      "▁ਸਾਬਤ": 2750,
      "▁know": 2751,
      "▁cases": 2752,
      "▁ਬਣਾਇਆ": 2753,
      "▁develop": 2754,
      "▁ਲੇ": 2755,
      "▁possession": 2756,
      "▁mention": 2757,
      "▁bus": 2758,
      "illa": 2759,
      "▁came": 2760,
      "▁ਵਿਧਾਨ": 2761,
      "▁ਪਾਲਣਾ": 2762,
      "▁contin": 2763,
      "▁ਸਭਾ": 2764,
      "half": 2765,
      "▁avail": 2766,
      "▁ਪਾਇਆ": 2767,
      "▁ਮਿਆਦ": 2768,
      "ren": 2769,
      "▁Supreme": 2770,
      "▁respondents": 2771,
      "▁ਹੱਕਦਾਰ": 2772,
      "▁dist": 2773,
      "▁proceedings": 2774,
      "▁ਸੀਨੀਅਰ": 2775,
      "▁ਸਾਲਾਂ": 2776,
      "▁ਉਲੰਘਣਾ": 2777,
      "ਮੈਂਟ": 2778,
      "▁legal": 2779,
      "aring": 2780,
      "▁abs": 2781,
      "ment,": 2782,
      "▁behalf": 2783,
      "▁soc": 2784,
      "iness": 2785,
      "ave": 2786,
      "▁ਇਨਕਾਰ": 2787,
      "sequent": 2788,
      "ਐਲ": 2789,
      "ੰਬਰ": 2790,
      "▁ਉਚਿਤ": 2791,
      "ਲੋ": 2792,
      "▁referred": 2793,
      "ized": 2794,
      "oard": 2795,
      "ices": 2796,
      "▁ਬੱਚ": 2797,
      "ਉਂਦੀ": 2798,
      "▁ਚੁਣੌਤੀ": 2799,
      "ਖਣ": 2800,
      "▁ਨੀ": 2801,
      "▁company": 2802,
      "▁way": 2803,
      "ੋਰਡ": 2804,
      "▁ਬਣਾਉਣ": 2805,
      "▁ਵਿਕਰੀ": 2806,
      "▁opp": 2807,
      "▁If": 2808,
      "▁:": 2809,
      "▁since": 2810,
      "ਰਚ": 2811,
      "▁ple": 2812,
      "ft": 2813,
      "▁ਮਾ": 2814,
      "ਹਤ": 2815,
      "▁opinion": 2816,
      "▁ਸੈ": 2817,
      "ees": 2818,
      "ਇਤਾ": 2819,
      "▁Court,": 2820,
      "ਜ਼ਨ": 2821,
      "▁ਈ": 2822,
      "han": 2823,
      "▁(ਪੀ": 2824,
      "▁bu": 2825,
      "▁Therefore,": 2826,
      "▁depos": 2827,
      "ency": 2828,
      "▁ਕੇਂਦਰ": 2829,
      "▁particular": 2830,
      "▁ਵਪ": 2831,
      "ਭਰ": 2832,
      "ੁਪਰਾ": 2833,
      "▁Pol": 2834,
      "ten": 2835,
      "▁challen": 2836,
      "ple": 2837,
      "ctions": 2838,
      "ਚਾਰ": 2839,
      "▁ਸਿੱਖੀ": 2840,
      "▁ਸਥਾ": 2841,
      "▁District": 2842,
      "▁ਭੇਜ": 2843,
      "▁ਉੱਤਰਦਾਤਾ": 2844,
      "▁ਸਨ,": 2845,
      "▁Kumar": 2846,
      "uc": 2847,
      "▁(ਸੁਪਰਾ": 2848,
      "▁Par": 2849,
      "ret": 2850,
      "ੀਖਿਆ": 2851,
      "▁ਇਲਾਵਾ,": 2852,
      "ਵਰੀ": 2853,
      "▁ਯੂਨੀ": 2854,
      "▁ਸਹਾਇਤਾ": 2855,
      "▁29": 2856,
      "▁ਚਾਹ": 2857,
      "▁ਸੁਣਵਾਈ": 2858,
      "ੈਕਟ": 2859,
      "▁ਵਾਧ": 2860,
      "ਸਾਨ": 2861,
      "▁adv": 2862,
      "▁argu": 2863,
      "▁ਸਿਧਾਂਤ": 2864,
      "▁num": 2865,
      "ourse": 2866,
      "▁ਗਰ": 2867,
      "ather": 2868,
      "▁ਪੈਰਾ": 2869,
      "lig": 2870,
      "▁ਪਹਿਲੇ": 2871,
      "cip": 2872,
      "ਿੰਡ": 2873,
      "▁Committee": 2874,
      "ੀਆ": 2875,
      "ਤਾਲ": 2876,
      "▁ਪੂਰ": 2877,
      "▁Shri": 2878,
      "ਪਟ": 2879,
      "ੈਂਡ": 2880,
      "ning": 2881,
      "▁Pres": 2882,
      "▁ਨੁਕ": 2883,
      "ਿਆਦਾ": 2884,
      "▁'ਤੇ,": 2885,
      "▁ਖਰੀ": 2886,
      "▁med": 2887,
      "▁ਟਰ": 2888,
      "▁entit": 2889,
      "▁ਇਸਤ": 2890,
      "▁test": 2891,
      "ੇਤ": 2892,
      "ਸਿ": 2893,
      "▁ਕਾਲ": 2894,
      "▁ਮੁੜ": 2895,
      "ਿਕਾ": 2896,
      "▁section": 2897,
      "▁legisl": 2898,
      "▁every": 2899,
      "▁ਸਥਾਪਤ": 2900,
      "▁ਸ਼ੱਕ": 2901,
      "▁ਦਾਖਲ": 2902,
      "▁ਬਰ": 2903,
      "ਪੁਰ": 2904,
      "▁deter": 2905,
      "▁nature": 2906,
      "▁Y": 2907,
      "ugh": 2908,
      "▁ਰੋਕ": 2909,
      "▁conv": 2910,
      "▁ਇਕੱ": 2911,
      "ਲੂ": 2912,
      "▁ਸ਼ਰਤਾਂ": 2913,
      "▁ਛੱਡ": 2914,
      "uty": 2915,
      "ner": 2916,
      "▁various": 2917,
      "▁Min": 2918,
      "▁ਸੰਭਾਵ": 2919,
      "▁Or": 2920,
      "ived": 2921,
      "i)": 2922,
      "▁ਯੋਗਤਾ": 2923,
      "▁ਆਰਡਰ": 2924,
      "▁ਰੱਖਣ": 2925,
      "▁ਵਿਭਾਗ": 2926,
      "▁ਅਸਫਲ": 2927,
      "▁ਵਧਾ": 2928,
      "▁ਕੁਮਾਰ": 2929,
      "ange": 2930,
      "way": 2931,
      "▁according": 2932,
      "ਗੀ.\n": 2933,
      "heme": 2934,
      "ator": 2935,
      "▁ਮੋ": 2936,
      "4)": 2937,
      "ble": 2938,
      "crib": 2939,
      "▁non": 2940,
      "us,": 2941,
      "supra": 2942,
      "▁ਇਤ": 2943,
      "▁ਅਹੁ": 2944,
      "▁ਜੁਰ": 2945,
      "a.\n": 2946,
      "▁lim": 2947,
      "▁ਗੋ": 2948,
      "▁ਸਥਾਨ": 2949,
      "6,": 2950,
      "ਜਨ": 2951,
      "▁ਸਾਨੂੰ": 2952,
      "▁ਉਸੇ": 2953,
      "▁terms": 2954,
      "▁ਹੁਕਮ": 2955,
      "ੱਗਰੀ": 2956,
      "▁ਦਾਅਵੇ": 2957,
      ".e": 2958,
      "▁ਐਫ": 2959,
      "ready": 2960,
      "lement": 2961,
      "ਨਜ਼ਰ": 2962,
      "ਸ਼ਟੀ": 2963,
      "IR": 2964,
      "▁sale": 2965,
      "▁letter": 2966,
      "ਕਰਨ": 2967,
      "▁fail": 2968,
      "▁consideration": 2969,
      "ਹਿਰਾ": 2970,
      "▁Sc": 2971,
      "▁already": 2972,
      "▁ਸਿਵਲ": 2973,
      "ਨਿ": 2974,
      "▁ਮੱਦੇ": 2975,
      "▁ਮੱਦੇਨਜ਼ਰ": 2976,
      "▁ਬੋਰਡ": 2977,
      "ਬੰਦੀ": 2978,
      "▁second": 2979,
      "▁(ਸੁਪਰਾ)": 2980,
      "▁ਮਾਲਕ": 2981,
      "of": 2982,
      "▁sub-": 2983,
      "ying": 2984,
      "ring": 2985,
      "ਉਂਦੇ": 2986,
      "▁(supra": 2987,
      "▁ਜਗ": 2988,
      "7,": 2989,
      "▁certain": 2990,
      "uch": 2991,
      "▁ਬਲ": 2992,
      "▁along": 2993,
      "▁Dep": 2994,
      "▁sy": 2995,
      "▁alle": 2996,
      "▁child": 2997,
      "▁ਜ਼ਿੰਮੇਵ": 2998,
      "▁ਦਿੰਦਾ": 2999,
      "▁ਭਰ": 3000,
      "▁each": 3001,
      "▁ਜ਼ਿ": 3002,
      "▁transf": 3003,
      "▁injur": 3004,
      "ਕਰਣ": 3005,
      "▁result": 3006,
      "▁ਜ਼ਿਆਦਾ": 3007,
      "▁far": 3008,
      "▁specific": 3009,
      "ob": 3010,
      "ures": 3011,
      "▁ਪਟੀਸ਼ਨਕਰਤਾਵਾਂ": 3012,
      "val": 3013,
      "▁Rule": 3014,
      "▁ਪਿੰਡ": 3015,
      "ਡਾ": 3016,
      "▁ਅਰਥ": 3017,
      "quir": 3018,
      "ਸ਼ਟਰੀ": 3019,
      "app": 3020,
      "▁incident": 3021,
      "▁import": 3022,
      "▁rest": 3023,
      "/201": 3024,
      "▁recorded": 3025,
      "▁fav": 3026,
      "▁members": 3027,
      "▁read": 3028,
      "▁sim": 3029,
      "▁ਅਧਿਕਾਰਾਂ": 3030,
      "▁ਰਾਏ": 3031,
      "i,": 3032,
      "▁ਸਮੱਗਰੀ": 3033,
      "▁ਗਲਤ": 3034,
      "’s": 3035,
      "▁ਪਹਿਲੀ": 3036,
      "ੀਰ": 3037,
      "▁constru": 3038,
      "ality": 3039,
      "▁ਉਮਰ": 3040,
      "▁relevant": 3041,
      "▁ਬੋ": 3042,
      "ਗਾਸਾ": 3043,
      "cil": 3044,
      "▁ਨੋ": 3045,
      "▁alleged": 3046,
      "▁ਇਕੋ": 3047,
      "▁fam": 3048,
      "▁(ਏ": 3049,
      "▁word": 3050,
      "▁ir": 3051,
      "▁ਬਦਲ": 3052,
      "▁ਇਸਤਗਾਸਾ": 3053,
      "▁Ram": 3054,
      "▁ਪੋ": 3055,
      "▁ਪਾਸੇ": 3056,
      "▁ਕਿਰਾਏ": 3057,
      "▁ਇਸਦੇ": 3058,
      "▁ਧਾਰਾਵਾਂ": 3059,
      "▁mar": 3060,
      "5,": 3061,
      "▁body": 3062,
      "▁ਗਵਾਹਾਂ": 3063,
      "▁mis": 3064,
      "/1": 3065,
      "▁oper": 3066,
      "▁agreement": 3067,
      "▁ਦੇਣਾ": 3068,
      "▁ਸਮਾਜ": 3069,
      "ਖਤ": 3070,
      ".P": 3071,
      "ents": 3072,
      "▁ਠਹਿਰਾ": 3073,
      "▁ਨਿਪਟ": 3074,
      "▁charge": 3075,
      "eep": 3076,
      "▁ਮਹਿ": 3077,
      "▁ਉਦ": 3078,
      "3,": 3079,
      "▁ਜਾਂਦੇ": 3080,
      "▁ਮਨਜ਼": 3081,
      "▁ਰਜਿਸਟਰ": 3082,
      "ਨਲ": 3083,
      "ants": 3084,
      "ਿਲਾ": 3085,
      "-ਪ": 3086,
      "▁ਵਿਰੋ": 3087,
      "▁ਪਛਾ": 3088,
      "pital": 3089,
      "ਿਅਤ": 3090,
      "▁Comp": 3091,
      "▁situ": 3092,
      "▁ਅਦਾਇ": 3093,
      "▁ਮੀ": 3094,
      "ਧਾਰਾ": 3095,
      "▁equ": 3096,
      "▁'s": 3097,
      "▁favour": 3098,
      "up": 3099,
      "▁ਪਾਰਟੀ": 3100,
      "▁Central": 3101,
      "▁ਸੰਸ": 3102,
      ".03": 3103,
      "▁ਅਦਾਇਗੀ": 3104,
      "▁ਜਿਥੇ": 3105,
      "▁ਸੋਚ": 3106,
      "▁come": 3107,
      "▁ਸੂਚੀ": 3108,
      "▁ਸੀ।": 3109,
      "▁life": 3110,
      "▁ਚੁੱਕ": 3111,
      "▁ਇੱਥੇ": 3112,
      "ks": 3113,
      "▁ਪ੍ਰਮਾਣ": 3114,
      "ਰਲ": 3115,
      "ਸ਼ੀਲ": 3116,
      "▁earli": 3117,
      "▁entitled": 3118,
      "▁President": 3119,
      "▁party": 3120,
      "ences": 3121,
      "less": 3122,
      "▁prev": 3123,
      "▁pass": 3124,
      "▁ਖਾ": 3125,
      "▁ਆਪਣਾ": 3126,
      "▁ਸੱਟ": 3127,
      "tic": 3128,
      "▁including": 3129,
      "▁ਡਾਕ": 3130,
      "▁itself": 3131,
      "▁(A": 3132,
      "▁ਉਤਪ": 3133,
      "▁En": 3134,
      "▁complaint": 3135,
      "▁ਸੁਰੱਖਿਆ": 3136,
      "ਫ਼ੀ": 3137,
      "▁ਪੜਤਾਲ": 3138,
      "▁appointment": 3139,
      "osed": 3140,
      "▁ਬਿਲ": 3141,
      "ਕਸ": 3142,
      "▁ਖਰੀਦ": 3143,
      "resent": 3144,
      "ides": 3145,
      "▁ਪਰਿਵਾਰ": 3146,
      "pri": 3147,
      "▁ident": 3148,
      "The": 3149,
      "▁ਕਰਵਾ": 3150,
      "▁fin": 3151,
      "▁expl": 3152,
      "▁cause": 3153,
      "▁&": 3154,
      "▁ਅਪੀਲਕਰਤਾਵਾਂ": 3155,
      "arge": 3156,
      "▁Board": 3157,
      "▁cre": 3158,
      "▁ਪਛਾਣ": 3159,
      "▁ਅਪਰਾਧਿਕ": 3160,
      "ੂਹ": 3161,
      "▁2016": 3162,
      "▁now": 3163,
      "▁Raj": 3164,
      "▁dou": 3165,
      "▁Respondent": 3166,
      "▁ਜਾਣੀ": 3167,
      "▁Police": 3168,
      "ਾਸਤ": 3169,
      "er.\n": 3170,
      "▁ਸੱਚ": 3171,
      "▁point": 3172,
      "raph": 3173,
      "▁ਸਟ": 3174,
      "▁ਸਕਦਾ.\n": 3175,
      "ing,": 3176,
      "▁criminal": 3177,
      "ull": 3178,
      "▁prom": 3179,
      "▁ਸੌਂ": 3180,
      "ਜ਼ਤ": 3181,
      "▁ਨਿਸ਼": 3182,
      "▁ਪ੍ਰਸਤਾ": 3183,
      "▁ਤਰ੍ਹਾਂ,": 3184,
      "▁mer": 3185,
      "▁ਕਿਸ": 3186,
      "▁another": 3187,
      "PC": 3188,
      "▁Man": 3189,
      "ared": 3190,
      "▁Sec": 3191,
      "▁ਸੰਵਿਧਾਨਕ": 3192,
      "ਭਗ": 3193,
      "▁priv": 3194,
      "2,": 3195,
      "▁ਕਲ": 3196,
      "▁ਗਿਆ।\n": 3197,
      "▁ਨਿਆਂਇਕ": 3198,
      "▁ਮੁਆਵ": 3199,
      "▁bro": 3200,
      "ਾਂਝ": 3201,
      "▁ਭਾਰਤੀ": 3202,
      "▁ਸਾਰੀਆਂ": 3203,
      "AR": 3204,
      "▁loc": 3205,
      "▁provided": 3206,
      "urre": 3207,
      "▁ਅਵ": 3208,
      "▁i.e": 3209,
      "ctor": 3210,
      ")\n": 3211,
      "▁mean": 3212,
      "▁ਬੰਦ": 3213,
      "omm": 3214,
      "ately": 3215,
      "▁dismissed": 3216,
      "4,": 3217,
      "▁business": 3218,
      "▁fl": 3219,
      "illage": 3220,
      "▁ਲੋੜ": 3221,
      "▁ਹਲ": 3222,
      "▁ਐਂ": 3223,
      "ਿਣ": 3224,
      "▁ਨਿਰਭਰ": 3225,
      "▁ਅਦਾਲਤਾਂ": 3226,
      "ਦਰੀ": 3227,
      "ivision": 3228,
      "▁Indian": 3229,
      "▁witnesses": 3230,
      "ਵਾਸ": 3231,
      "▁use": 3232,
      "▁ਦੁਬ": 3233,
      "▁ਵੱਖਰੇ": 3234,
      "ਐਮ": 3235,
      "▁ਤਨ": 3236,
      "▁ਧਾਰ": 3237,
      "▁invol": 3238,
      "tal": 3239,
      "▁object": 3240,
      "▁ਸੀ.": 3241,
      "▁ਸੰਭ": 3242,
      "chn": 3243,
      "hes": 3244,
      "▁ਅਧਿਕਾਰੀਆਂ": 3245,
      "▁number": 3246,
      "▁ਕਾਰੋਬ": 3247,
      "▁ਕ੍ਰ": 3248,
      "ਪਾਲ": 3249,
      "▁2015": 3250,
      "▁submit": 3251,
      "ਜਬ": 3252,
      "▁available": 3253,
      "ਥਨ": 3254,
      "▁ਸਵਾਲ": 3255,
      "▁ਦੱ": 3256,
      "▁sur": 3257,
      "))": 3258,
      "▁No.2": 3259,
      "▁et": 3260,
      "▁ਉਤਪਾਦ": 3261,
      "par": 3262,
      "pted": 3263,
      "▁ਤੁਰ": 3264,
      "▁exist": 3265,
      "ivers": 3266,
      "artment": 3267,
      "ension": 3268,
      "ਲਬਧ": 3269,
      "ਾਨੀ": 3270,
      "tern": 3271,
      "ਾਂਚ": 3272,
      "▁entire": 3273,
      "ਹਿਰ": 3274,
      "-ਵੱਖ": 3275,
      "▁orders": 3276,
      "▁ਖਾਸ": 3277,
      "▁ਖਰਚ": 3278,
      "ੇਰੇ": 3279,
      "ਟਿਡ": 3280,
      "orpor": 3281,
      "▁ਲਗਭਗ": 3282,
      "▁ਇਕਰਾਰਨਾਮੇ": 3283,
      "lusion": 3284,
      "▁maint": 3285,
      "ਦਾਰੀ": 3286,
      "les": 3287,
      "▁ਉਪ-ਧਾਰਾ": 3288,
      "▁ਜਗ੍ਹਾ": 3289,
      "ੇਅਰ": 3290,
      "▁ਉਪਲਬਧ": 3291,
      "▁ਲੰ": 3292,
      "ried": 3293,
      ".2016": 3294,
      "ੂਨ": 3295,
      "unity": 3296,
      "▁According": 3297,
      "▁course": 3298,
      "▁exercise": 3299,
      "▁ਦਸਤਾਵੇਜ਼": 3300,
      "▁paid": 3301,
      "▁ਕਾਫ਼ੀ": 3302,
      "▁2017": 3303,
      "▁Re": 3304,
      "ੱਤੀ": 3305,
      ".2017": 3306,
      "aining": 3307,
      "▁etc": 3308,
      "ulation": 3309,
      "▁ਆਦਿ": 3310,
      "▁ਫ਼ੈਸਲੇ": 3311,
      "▁Sp": 3312,
      "▁ਵੱਖ-ਵੱਖ": 3313,
      "ੰਭੀਰ": 3314,
      "▁ਆਮਦ": 3315,
      "ati": 3316,
      "▁ਖੋਜ": 3317,
      "▁ਪ੍ਰਸਤਾਵ": 3318,
      "ਆਈਆਰ": 3319,
      "▁ਕਰਾ": 3320,
      "ool": 3321,
      "▁propos": 3322,
      "▁prot": 3323,
      "▁ਨਿਯੁਕਤ": 3324,
      "▁For": 3325,
      "▁ਗੰਭੀਰ": 3326,
      "▁ਤੇ,": 3327,
      "ਮਦ": 3328,
      "▁admitted": 3329,
      "▁ਆਦੇਸ਼ਾਂ": 3330,
      "pr": 3331,
      "ਗੀਆਂ": 3332,
      "▁ve": 3333,
      "▁She": 3334,
      "▁ਖਤਮ": 3335,
      "▁princip": 3336,
      "ਪਾਤ": 3337,
      "▁senior": 3338,
      "ogn": 3339,
      "ਡੀਆ": 3340,
      "ਖਾਹ": 3341,
      "▁den": 3342,
      "▁ਛੋਟ": 3343,
      "▁ਜ਼ਿਕਰ": 3344,
      ".\"": 3345,
      "ਿੱਠ": 3346,
      "▁Del": 3347,
      "▁add": 3348,
      "▁payment": 3349,
      "▁ਪ੍ਰਣ": 3350,
      "▁ਅਜਿਹੀਆਂ": 3351,
      "ck": 3352,
      "▁che": 3353,
      "ਜੂਦ": 3354,
      "ising": 3355,
      "ainant": 3356,
      "▁either": 3357,
      "▁At": 3358,
      "▁information": 3359,
      "▁case.\n": 3360,
      "▁ਸੰਤ": 3361,
      "ys": 3362,
      "▁subst": 3363,
      "▁ਤਨਖਾਹ": 3364,
      "▁position": 3365,
      "▁ਵਿਆਖਿਆ": 3366,
      "▁put": 3367,
      "▁ਸਬੂਤਾਂ": 3368,
      "▁ਪ੍ਰਵਾਨ": 3369,
      "▁ph": 3370,
      "ੜੀਂ": 3371,
      "▁based": 3372,
      "▁2011": 3373,
      "▁represent": 3374,
      "▁ਸੇਵਾਵਾਂ": 3375,
      "▁support": 3376,
      "▁open": 3377,
      "▁ten": 3378,
      "▁sign": 3379,
      "jud": 3380,
      "iding": 3381,
      "▁contention": 3382,
      "ateg": 3383,
      "▁ਪ੍ਰੋ": 3384,
      "▁done": 3385,
      "▁2013": 3386,
      "ilar": 3387,
      "▁ਲੋੜੀਂ": 3388,
      "▁ਸ਼ਿਕਾਇਤਕਰਤਾ": 3389,
      "▁vi": 3390,
      "gan": 3391,
      "▁ਪੀੜ": 3392,
      "▁mentioned": 3393,
      "▁ਨਜ਼ਰ": 3394,
      "▁ਪੱਧ": 3395,
      "▁ਦੁਬਾਰਾ": 3396,
      "▁ਦਿੰਦੇ": 3397,
      "▁ਲਿਮ": 3398,
      "▁committed": 3399,
      "ਵੀਜ਼ਨ": 3400,
      "▁clause": 3401,
      "▁50": 3402,
      "▁ਭੂ": 3403,
      ".04": 3404,
      "port": 3405,
      "▁2012": 3406,
      "▁Ag": 3407,
      "▁ਵਜੇ": 3408,
      "▁dispute": 3409,
      "andid": 3410,
      "ਪਕ": 3411,
      "▁ਬੰ": 3412,
      ".01": 3413,
      "▁ਪ੍ਰਦਰ": 3414,
      "▁ਤੁਰੰਤ": 3415,
      "▁ਅਮ": 3416,
      "▁ਨੂੰ,": 3417,
      ".08": 3418,
      "▁directed": 3419,
      "ਾਈਨ": 3420,
      "▁ਐਕਟ,": 3421,
      ".07": 3422,
      "ditional": 3423,
      "atis": 3424,
      "▁ਦਿੱਲੀ": 3425,
      "olog": 3426,
      "uk": 3427,
      "see": 3428,
      "▁end": 3429,
      "▁ਸਿੱਟੇ": 3430,
      "▁2014": 3431,
      ".09": 3432,
      "▁compens": 3433,
      "▁Wh": 3434,
      "ਰਮ": 3435,
      "▁Officer": 3436,
      "▁ਨੀਤੀ": 3437,
      "ਸਪ": 3438,
      "istered": 3439,
      "▁ਗ੍ਰ": 3440,
      "▁fun": 3441,
      "▁require": 3442,
      "▁allowed": 3443,
      "▁ਲੜ": 3444,
      "row": 3445,
      "▁candid": 3446,
      "▁making": 3447,
      "▁ਸਮਰੱਥ": 3448,
      "ecial": 3449,
      "ik": 3450,
      "▁ਕਰਮਚਾਰੀ": 3451,
      "ਸ਼ਾਸ": 3452,
      "▁judicial": 3453,
      "▁sett": 3454,
      "▁ed": 3455,
      "ured": 3456,
      "▁promot": 3457,
      "▁ਸਮਰਥਨ": 3458,
      "▁met": 3459,
      "anch": 3460,
      "▁ਲੀ": 3461,
      "▁doubt": 3462,
      "▁ਹਾ": 3463,
      "▁ਲੋਕ": 3464,
      "▁Delhi": 3465,
      "▁ਚਾਹੁੰ": 3466,
      "▁ਅਭ": 3467,
      "hing": 3468,
      "▁ਅੰਤਮ": 3469,
      "▁meet": 3470,
      "▁ਤੀ": 3471,
      "ਾਨਾ": 3472,
      "▁Ass": 3473,
      "▁ਰੇ": 3474,
      "▁non-": 3475,
      "▁ਬਾਵ": 3476,
      "atory": 3477,
      ".\"\"\n": 3478,
      "▁vide": 3479,
      "ਸਥ": 3480,
      "▁polic": 3481,
      "▁rights": 3482,
      "▁ਨਿਰਮਾਣ": 3483,
      "▁ਤੁਸੀਂ": 3484,
      "▁ਪੁੱਛ": 3485,
      "cedure": 3486,
      "▁granted": 3487,
      "ਟੀਫਿਕੇਸ਼ਨ": 3488,
      "▁ਬੈ": 3489,
      "▁ser": 3490,
      "▁init": 3491,
      "▁ਸਥਾਪ": 3492,
      "▁ਪਟੀਸ਼ਨਾਂ": 3493,
      "▁placed": 3494,
      "▁ਸਮੂਹ": 3495,
      "▁justice": 3496,
      "atisf": 3497,
      "▁SCC": 3498,
      "▁ਬਾਵਜੂਦ": 3499,
      "▁ਉਮੀਦਵਾਰ": 3500,
      "▁proceeding": 3501,
      "8,": 3502,
      "▁country": 3503,
      "ਦਾਰਾਂ": 3504,
      "▁indic": 3505,
      "▁contro": 3506,
      "pur": 3507,
      "▁2010": 3508,
      "orted": 3509,
      "▁lead": 3510,
      "ਦੀਆਂ": 3511,
      "▁final": 3512,
      "▁reference": 3513,
      "▁sum": 3514,
      "▁ਜਿਹ": 3515,
      "▁ਸਪਸ਼ਟ": 3516,
      "▁institution": 3517,
      "ਠਾ": 3518,
      "▁contended": 3519,
      ".05": 3520,
      "▁Sub": 3521,
      "▁ਭਾਵੇਂ": 3522,
      "▁ਦਖਲ": 3523,
      "sible": 3524,
      "▁ਕਾਰਨਾਂ": 3525,
      "▁ਕਾਰੋਬਾਰ": 3526,
      "▁ਰਾਮ": 3527,
      "▁ਮਾਪ": 3528,
      "▁ਆਇਆ": 3529,
      "▁ਸਮੇਤ": 3530,
      "▁ਉਦਯੋਗ": 3531,
      "▁ਨੁਕਸਾਨ": 3532,
      ".ਸੀ.": 3533,
      "▁ਕੀਮਤ": 3534,
      "▁ਭਰੋਸਾ": 3535,
      "▁ਜ਼ਿੰਮੇਵਾਰੀ": 3536,
      ".7": 3537,
      "king": 3538,
      "ਾਂਸ": 3539,
      "quiry": 3540,
      "▁ਵਧੇਰੇ": 3541,
      "▁ਰੈ": 3542,
      "▁2009": 3543,
      "▁ਹੈ:": 3544,
      "▁ਇਰਾ": 3545,
      "▁contr": 3546,
      ".6": 3547,
      "▁Bh": 3548,
      "▁herein": 3549,
      "▁family": 3550,
      "▁ਅਹੁਦੇ": 3551,
      "▁ਮਹੱਤਵਪੂਰਣ": 3552,
      "1)": 3553,
      "5)": 3554,
      "▁ਉਲਟ": 3555,
      "▁ਹੇਠਾਂ": 3556,
      "ivid": 3557,
      "ept": 3558,
      "ought": 3559,
      "ਏਗਾ": 3560,
      "▁raised": 3561,
      "▁ਨੋਟੀਫਿਕੇਸ਼ਨ": 3562,
      "▁ਹਰੇ": 3563,
      "AN": 3564,
      "▁ਵਿਆਹ": 3565,
      "▁dra": 3566,
      "▁ਤੁਹਾ": 3567,
      "▁ਜਾਇਜ਼": 3568,
      "▁determin": 3569,
      "ਦੂ": 3570,
      "iance": 3571,
      "ode": 3572,
      "▁pun": 3573,
      "==": 3574,
      "੍ਰੇਣੀ": 3575,
      "ਜ਼ਰੀ": 3576,
      "▁lit": 3577,
      "▁(PW": 3578,
      "ਜਾਜ਼ਤ": 3579,
      "▁continu": 3580,
      "▁ਪਤ": 3581,
      "▁ਮੈਂਬਰਾਂ": 3582,
      "▁ਇਜਾਜ਼ਤ": 3583,
      "▁Division": 3584,
      "ples": 3585,
      "▁Mag": 3586,
      "▁ਪੜਾਅ": 3587,
      "▁tre": 3588,
      "ਖਰ": 3589,
      "▁Chief": 3590,
      "▁ਕਰੇਗਾ": 3591,
      "▁fore": 3592,
      "▁took": 3593,
      "spect": 3594,
      "▁stage": 3595,
      "▁ਸਰੀ": 3596,
      "▁following": 3597,
      "▁ਸ਼੍ਰੇਣੀ": 3598,
      "▁give": 3599,
      "▁your": 3600,
      "AT": 3601,
      "▁ਪਿਛਲੇ": 3602,
      "▁bank": 3603,
      "ਮੂ": 3604,
      "▁ਇਸਦਾ": 3605,
      "▁ਮੁੱਦੇ": 3606,
      "▁complainant": 3607,
      "ministr": 3608,
      "ison": 3609,
      "▁received": 3610,
      "▁ਪੜ੍ਹ": 3611,
      "▁perform": 3612,
      "▁long": 3613,
      "▁ਦਰਸ": 3614,
      "hib": 3615,
      "▁ਨਾਲ,": 3616,
      "▁ਯਾਦ": 3617,
      "▁ਸਰੀਰ": 3618,
      "▁ਸ਼ੁਰੂਆ": 3619,
      "earned": 3620,
      "▁ਲਿਮਟਿਡ": 3621,
      "▁ਚਾਰ": 3622,
      "▁str": 3623,
      ".02": 3624,
      "....": 3625,
      "▁())": 3626,
      "af": 3627,
      "▁cert": 3628,
      "unic": 3629,
      "▁son": 3630,
      "▁benefit": 3631,
      "▁aside": 3632,
      "▁ਫੈਸਲਿਆਂ": 3633,
      "▁orig": 3634,
      "▁taking": 3635,
      "▁ਕਬਜ਼ੇ": 3636,
      "▁Mar": 3637,
      "▁They": 3638,
      "▁accept": 3639,
      "arm": 3640,
      "▁ਲਗਾਉਣ": 3641,
      "▁stud": 3642,
      "▁ਨਿੱ": 3643,
      "▁ਨੌ": 3644,
      "▁assess": 3645,
      "▁ਬਿਨੈਕਾਰ": 3646,
      "▁Bank": 3647,
      "▁ਮਨਜ਼ੂਰੀ": 3648,
      "jection": 3649,
      "ਕੁਲ": 3650,
      "ov": 3651,
      "▁Dire": 3652,
      "▁ਸਾਡੀ": 3653,
      "▁ਚਲਾਉਣ": 3654,
      "ne": 3655,
      "idav": 3656,
      "s.": 3657,
      "▁ਆਰਬਿ": 3658,
      "▁Author": 3659,
      "▁ਹਸ": 3660,
      "section": 3661,
      "▁ਸਤ": 3662,
      "▁satisf": 3663,
      "ਿਟ": 3664,
      "▁mere": 3665,
      ".9": 3666,
      "▁ਕਥ": 3667,
      "2)": 3668,
      "▁ਦਾਖ": 3669,
      "stem": 3670,
      "utory": 3671,
      "ਫਾਰ": 3672,
      "▁ਚੌ": 3673,
      "ੈਂਦਾ": 3674,
      "▁ਸੰਕੇ": 3675,
      "▁(ਪੀਡਬਲਯੂ": 3676,
      "▁cross": 3677,
      "▁cent": 3678,
      "▁ਮੇਰੇ": 3679,
      "▁fund": 3680,
      "by": 3681,
      "unal": 3682,
      "▁ਮਹੱਤਵਪੂਰਨ": 3683,
      "▁alleg": 3684,
      "▁ਡਾਇਰ": 3685,
      "▁ਸਮਾਂ": 3686,
      "▁conclusion": 3687,
      "▁ਹਰੇਕ": 3688,
      "▁Am": 3689,
      "▁ਸਹਿਮਤੀ": 3690,
      "reed": 3691,
      "▁But": 3692,
      "▁ਐਕਸ": 3693,
      "▁ਘੋਸ਼": 3694,
      "ਾਲੇ": 3695,
      "▁ਵੇਖ": 3696,
      "ਫਤ": 3697,
      "▁document": 3698,
      "▁ਪ੍ਰਬੰਧਨ": 3699,
      "cepted": 3700,
      "▁ਵੱਲੋਂ": 3701,
      "▁ਕੁਦਰ": 3702,
      "wise": 3703,
      "istrate": 3704,
      "ੋਨ": 3705,
      "ary,": 3706,
      ".8": 3707,
      "ts": 3708,
      "▁reject": 3709,
      "▁Learned": 3710,
      "▁ਹਾਲਤ": 3711,
      "▁\"The": 3712,
      "ਹਰ": 3713,
      "▁respon": 3714,
      "▁ਬਲਕਿ": 3715,
      "▁sug": 3716,
      "▁examined": 3717,
      "▁ਕਥਿਤ": 3718,
      "ਕਸ਼": 3719,
      "▁(3)": 3720,
      "cribed": 3721,
      "▁income": 3722,
      "▁vict": 3723,
      "ਿਣਤੀ": 3724,
      "▁ਤਾ": 3725,
      "▁special": 3726,
      "▁obtain": 3727,
      "ering": 3728,
      "▁pat": 3729,
      "ence,": 3730,
      "ages": 3731,
      "▁ਕਦੇ": 3732,
      "▁ਦੇਰੀ": 3733,
      "▁registered": 3734,
      "▁ਵੇਖਿਆ": 3735,
      "ਟਿੰਗ": 3736,
      "S.": 3737,
      "▁purch": 3738,
      "▁ਕੀਤੀ।\n": 3739,
      "▁P.W": 3740,
      "get": 3741,
      "▁ਖੁਦ": 3742,
      "ਕਾਨ": 3743,
      "▁ਸੰਭਾਵਨਾ": 3744,
      "▁high": 3745,
      "ਿਮ": 3746,
      "chool": 3747,
      "mber": 3748,
      "▁decl": 3749,
      "ਤਿਕ": 3750,
      "▁cop": 3751,
      "▁exc": 3752,
      "▁Thus,": 3753,
      "ਵੇਸ਼": 3754,
      "1,": 3755,
      "▁accord": 3756,
      ".06": 3757,
      "▁ਲਾਇ": 3758,
      "ਥੋਂ": 3759,
      "▁nor": 3760,
      "ਰਾਮ": 3761,
      "ird": 3762,
      "ੁੱਟ": 3763,
      "ock": 3764,
      "▁ਦੱਸੇ": 3765,
      "ains": 3766,
      "▁mind": 3767,
      "ਤੰਤਰ": 3768,
      "ਨਿਆਂ": 3769,
      "ached": 3770,
      "▁ਜ਼ੋਰ": 3771,
      "▁ਪ੍ਰਦੇਸ਼": 3772,
      "▁detail": 3773,
      "ari": 3774,
      "▁called": 3775,
      "▁ਤਰਫ": 3776,
      "▁water": 3777,
      "▁say": 3778,
      "▁ਵੰਡ": 3779,
      "ਠੇ": 3780,
      "ਸ਼ਣ": 3781,
      "▁ਥਾ": 3782,
      "▁viol": 3783,
      "▁clearly": 3784,
      "ਸਿਟੀ": 3785,
      "▁office": 3786,
      "rect": 3787,
      "▁valid": 3788,
      "▁ਕਲਾ": 3789,
      "▁er": 3790,
      "▁many": 3791,
      "▁ਵਾਲੀਆਂ": 3792,
      "▁ਯੂਨੀਵਰ": 3793,
      "wards": 3794,
      "▁ਵਿੱਤੀ": 3795,
      "▁dispos": 3796,
      "▁ਟ੍ਰਿ": 3797,
      "▁ਤਰਫੋਂ": 3798,
      "▁ਵਿੱਚੋਂ": 3799,
      "ਪੋਰੇ": 3800,
      "▁earlier": 3801,
      "▁ਪੁਰ": 3802,
      "▁play": 3803,
      "ਿਆਸ": 3804,
      "▁apply": 3805,
      "▁prof": 3806,
      "▁rule": 3807,
      "▁That": 3808,
      "eneral": 3809,
      "▁appearing": 3810,
      "▁ਚੀਜ਼ਾਂ": 3811,
      "▁investigation": 3812,
      "ਦਮ": 3813,
      "▁ਦਿਲ": 3814,
      "▁tem": 3815,
      "ੱਛ": 3816,
      "▁sought": 3817,
      "▁ਨਿਗ": 3818,
      "▁ਸਾਂਝ": 3819,
      ".2015": 3820,
      "▁look": 3821,
      "▁conduct": 3822,
      "▁duty": 3823,
      "▁Magistrate": 3824,
      "▁ਐਡ": 3825,
      "▁accepted": 3826,
      "▁ਕਮਿਸ਼ਨਰ": 3827,
      "ਪੀਸੀ": 3828,
      "▁ਸੈਕ": 3829,
      "▁ਚੰਗੀ": 3830,
      "▁ਦੋਵੇਂ": 3831,
      "▁affidav": 3832,
      "▁ਸੰਕੇਤ": 3833,
      "▁ਘਾ": 3834,
      "▁ਜਲ": 3835,
      "air": 3836,
      "▁Gu": 3837,
      "ਤਾਵਾਂ": 3838,
      "▁ਸਹ": 3839,
      "ਲਾਟ": 3840,
      "ribunal": 3841,
      ".198": 3842,
      "▁cost": 3843,
      "▁common": 3844,
      "▁days": 3845,
      "▁documents": 3846,
      "ibility": 3847,
      "▁ਸਟੇ": 3848,
      "ing.\n": 3849,
      "▁ਪ੍ਰਸ": 3850,
      "▁ਸਕੀ": 3851,
      "▁pract": 3852,
      "▁ਹੱਦ": 3853,
      "▁After": 3854,
      "▁fee": 3855,
      "▁ਚਾਰਜ": 3856,
      "▁ਤੌਰ'": 3857,
      "ested": 3858,
      "▁most": 3859,
      "▁individ": 3860,
      "▁appointed": 3861,
      "▁scheme": 3862,
      "▁ਦਿਸ਼ਾ": 3863,
      "rought": 3864,
      "▁delay": 3865,
      "▁ਟ੍ਰਿਬਿ": 3866,
      "0,": 3867,
      "ਿੱਛ": 3868,
      "▁ਸਮਝੌਤਾ": 3869,
      "ustice": 3870,
      "▁Tr": 3871,
      "▁constitution": 3872,
      "▁manner": 3873,
      "▁ਮੰਤਰੀ": 3874,
      "▁01": 3875,
      "▁expres": 3876,
      "▁ਬਰਾਬਰ": 3877,
      "▁Cha": 3878,
      "ਦਰੇ": 3879,
      "olution": 3880,
      "overed": 3881,
      "day": 3882,
      "▁demand": 3883,
      "ake": 3884,
      "EN": 3885,
      "▁ਆਧਾਰ": 3886,
      "▁ਕਰਮਚਾਰੀਆਂ": 3887,
      "▁victim": 3888,
      "▁ਇਸੇ": 3889,
      "▁ਪੱਧਰ": 3890,
      "ospital": 3891,
      "▁ਉੱਪਰ": 3892,
      "▁ਦਿਨਾਂ": 3893,
      "▁ਪੰਜ": 3894,
      "ਕੂਲ": 3895,
      "▁ਯੂਨੀਵਰਸਿਟੀ": 3896,
      "▁appropri": 3897,
      "▁ਕਾਰਪੋਰੇ": 3898,
      "▁ਲਿਖਤੀ": 3899,
      "ਾਤਰਾ": 3900,
      "agraph": 3901,
      "▁area": 3902,
      "▁ਗੁਣ": 3903,
      "▁discus": 3904,
      "ੋਕ": 3905,
      "▁mone": 3906,
      "▁hearing": 3907,
      "▁compet": 3908,
      "▁ver": 3909,
      "▁categ": 3910,
      "▁constit": 3911,
      "ਾਂ,": 3912,
      "▁ਆਰਬਿਟਰ": 3913,
      "▁educ": 3914,
      "ives": 3915,
      "▁ਪ੍ਰਕਾ": 3916,
      "inary": 3917,
      "▁sever": 3918,
      "▁ਇਤਰਾ": 3919,
      "▁father": 3920,
      "▁Col": 3921,
      "▁ਅਧਿਕਾਰਤ": 3922,
      "▁ਪਾਣੀ": 3923,
      "▁and,": 3924,
      "▁principle": 3925,
      "▁ਰਾਹੀਂ": 3926,
      "ential": 3927,
      "▁adver": 3928,
      "▁recomm": 3929,
      "▁ਬਿਲਕੁਲ": 3930,
      "▁important": 3931,
      "▁observed": 3932,
      "▁ਜਿਸਦਾ": 3933,
      "ਪਤਾਲ": 3934,
      "▁ਮਰ": 3935,
      "▁societ": 3936,
      "rie": 3937,
      "essee": 3938,
      "▁ਪਤਨੀ": 3939,
      "▁ਮਿਲੀ": 3940,
      "▁ਭਾਗ": 3941,
      "▁ਨਿਯੰਤਰ": 3942,
      "als": 3943,
      "▁ਬਾਰ": 3944,
      "▁ਗਤੀ": 3945,
      "▁prior": 3946,
      "ਨਿਆ": 3947,
      "ਰੀਆਂ": 3948,
      "▁ਲਗਾਇਆ": 3949,
      "▁ਪੀ.": 3950,
      "▁ਗਲਤੀ": 3951,
      "▁discl": 3952,
      "▁ਹਸਪਤਾਲ": 3953,
      "ellate": 3954,
      "▁ਪ੍ਰਗ": 3955,
      "▁law.\n": 3956,
      "--------": 3957,
      "ES": 3958,
      "▁much": 3959,
      "ੰਬਰ,": 3960,
      "▁mod": 3961,
      "▁ਪਿਤਾ": 3962,
      "arent": 3963,
      "endent": 3964,
      "▁All": 3965,
      "▁ਆਯ": 3966,
      "▁ਨਵੀਂ": 3967,
      "tra": 3968,
      "rest": 3969,
      "▁Civil": 3970,
      "ember": 3971,
      "ਥੀ": 3972,
      "▁sentence": 3973,
      "▁individual": 3974,
      "▁ਨੰ.": 3975,
      "ਦਗੀ": 3976,
      "sp": 3977,
      "▁officer": 3978,
      "▁ਝਗ": 3979,
      "▁ਗਿਆ.\n": 3980,
      "▁ਲਗਦਾ": 3981,
      "▁except": 3982,
      "▁till": 3983,
      "▁ਨੈ": 3984,
      "▁cust": 3985,
      ".P.": 3986,
      "▁ਮੁਸ਼": 3987,
      "here": 3988,
      "▁Act.\n": 3989,
      "ਸਟਿਸ": 3990,
      "▁ਕੀਤਾ।\n": 3991,
      "▁ਰੱਖਣਾ": 3992,
      "▁aspect": 3993,
      "▁ਅਸਾਮ": 3994,
      "ਖਾਸਤ": 3995,
      "II": 3996,
      "▁ਸੌਂਪ": 3997,
      "▁relief": 3998,
      "▁Company": 3999,
      "▁ਪੁੱਤਰ": 4000,
      "ਕੋ": 4001,
      "▁ਹੋਣੀ": 4002,
      "ੰਟ": 4003,
      "▁ਪ੍ਰਵਾਨਗੀ": 4004,
      "oup": 4005,
      "▁ਸੁਣਾ": 4006,
      "▁ਰਾਹਤ": 4007,
      "▁ਸੀਮਾ": 4008,
      "▁ਸਿੱਧ": 4009,
      "ancial": 4010,
      "▁establish": 4011,
      "ੁਮ": 4012,
      "-ਮ": 4013,
      "ਪਾ": 4014,
      "▁ਆਮਦਨੀ": 4015,
      "▁ਨਿੱਜੀ": 4016,
      "▁ਹਾਂ.\n": 4017,
      "▁reasons": 4018,
      "▁brought": 4019,
      "▁ਗ਼": 4020,
      "▁ਪਹਿਲੂ": 4021,
      "▁ਮਾਮਲਾ": 4022,
      "▁amend": 4023,
      "੍ਹੇ": 4024,
      "▁happ": 4025,
      "ਠਨ": 4026,
      "▁thereafter": 4027,
      "▁ਦੂਰ": 4028,
      "ਜ਼ਾਦੀ": 4029,
      "▁ਅਯੋਗ": 4030,
      "▁written": 4031,
      "ਰਾਈ": 4032,
      "▁Rules": 4033,
      "ext": 4034,
      "▁value": 4035,
      "omet": 4036,
      ",000/-": 4037,
      "stand": 4038,
      "▁going": 4039,
      "▁ਕਾਰਜਕਾਰੀ": 4040,
      "▁ਲਾਇਸ": 4041,
      "▁ਨਜ": 4042,
      "▁ਜਸਟਿਸ": 4043,
      "▁ਵੇਰ": 4044,
      "for": 4045,
      "▁ਦੂਸ": 4046,
      "▁conditions": 4047,
      "▁ਗੁੰ": 4048,
      "▁decree": 4049,
      "▁ਉਦੇਸ਼ਾਂ": 4050,
      "▁ਡਾਇਰੈਕਟਰ": 4051,
      "▁ਚੱਲ": 4052,
      "ya": 4053,
      "ity.\n": 4054,
      "▁defin": 4055,
      "▁ਅਧਿਆ": 4056,
      "▁General": 4057,
      "▁2007": 4058,
      "▁ਖੁਲਾ": 4059,
      "▁ਅਭਿਆਸ": 4060,
      "utes": 4061,
      "ick": 4062,
      "▁ਪੀੜਤ": 4063,
      "▁tra": 4064,
      "▁ਤਬਦੀਲੀ": 4065,
      "▁conn": 4066,
      "▁never": 4067,
      "▁cred": 4068,
      "ically": 4069,
      "▁ਅਪਣਾ": 4070,
      "▁ਏਜ": 4071,
      "ਟਾਂਦਰੇ": 4072,
      "▁ਜੁੜੇ": 4073,
      "▁system": 4074,
      "6)": 4075,
      "lia": 4076,
      "▁ਕਬਜ਼ਾ": 4077,
      "▁laid": 4078,
      "▁2008": 4079,
      "ly.\n": 4080,
      "AL": 4081,
      "▁ਹਨ\n": 4082,
      "ਅਲ": 4083,
      "▁ਆਫ਼": 4084,
      "lected": 4085,
      "▁When": 4086,
      "▁ਜਨਰਲ": 4087,
      "▁ਹਾਲਤਾਂ": 4088,
      "ੁੱਖ": 4089,
      "▁ਅੰਤ": 4090,
      "▁i.e.": 4091,
      "▁examination": 4092,
      "▁ਖੇਡ": 4093,
      "▁punish": 4094,
      "▁sm": 4095,
      "▁ਹੋਵੇਗੀ": 4096,
      "▁ਹਿ": 4097,
      "▁ur": 4098,
      "▁direction": 4099,
      "▁ਰਾਸ਼ਟਰੀ": 4100,
      "▁ਹਿੰ": 4101,
      "▁ਆਉਣ": 4102,
      "▁ਹੱਥ": 4103,
      "▁authorities": 4104,
      "▁ਦੇਖ": 4105,
      "▁appropriate": 4106,
      "▁ਸਵ": 4107,
      "▁interf": 4108,
      "▁age": 4109,
      "-ਸ": 4110,
      "▁ਅਫ": 4111,
      "▁how": 4112,
      "ON": 4113,
      "▁2005": 4114,
      "▁ਸੰਸਥਾਵਾਂ": 4115,
      "▁build": 4116,
      "▁seen": 4117,
      "▁opport": 4118,
      "▁ਇੰਡੀਆ": 4119,
      "▁ਵਿਆਜ": 4120,
      "ries": 4121,
      "uman": 4122,
      "▁il": 4123,
      "▁ਛੇ": 4124,
      "vi": 4125,
      "▁ਨਜਿੱਠ": 4126,
      "ually": 4127,
      "▁however,": 4128,
      "▁compensation": 4129,
      "▁fix": 4130,
      "▁wom": 4131,
      "▁several": 4132,
      "▁ਵੇਚ": 4133,
      "▁ਫਾਰ": 4134,
      "▁ਵਿਸ਼ਵਾਸ": 4135,
      "▁below": 4136,
      "▁ਸੁਤੰਤਰ": 4137,
      "action": 4138,
      "▁affidavit": 4139,
      "▁ਦਰਸਾਇਆ": 4140,
      "mental": 4141,
      "ਦਾਰਥ": 4142,
      "▁hig": 4143,
      "▁regarding": 4144,
      "ੁਕਤ": 4145,
      "▁PW-": 4146,
      "▁pray": 4147,
      "ੋਧ": 4148,
      "▁ਵਜੋਂ,": 4149,
      "ocate": 4150,
      "▁indust": 4151,
      "▁accordance": 4152,
      "▁cr": 4153,
      "▁Corpor": 4154,
      "98": 4155,
      "▁ਦੇਖਿਆ": 4156,
      "▁ਹੋਣਗੇ": 4157,
      "▁left": 4158,
      "▁ਸੁਝ": 4159,
      "▁Union": 4160,
      "ਐਨ": 4161,
      "▁ਪਦਾਰਥ": 4162,
      "▁ਵਾਹ": 4163,
      "fficient": 4164,
      "▁possible": 4165,
      "____": 4166,
      "▁ਐਫਆਈਆਰ": 4167,
      "▁ਜੁਰਮ": 4168,
      "▁fr": 4169,
      "▁ਜੱਜਾਂ": 4170,
      "▁ਹਲਫ": 4171,
      "▁illeg": 4172,
      "▁statutory": 4173,
      "▁san": 4174,
      "▁four": 4175,
      "▁relied": 4176,
      "▁complete": 4177,
      "ਰਸ": 4178,
      "▁Further": 4179,
      "▁Justice": 4180,
      "irm": 4181,
      "▁care": 4182,
      "9,": 4183,
      "▁ਮੈਡੀ": 4184,
      "▁reasonable": 4185,
      "▁private": 4186,
      "▁subsequent": 4187,
      "▁activ": 4188,
      "arily": 4189,
      "▁ਵਧੀਆ": 4190,
      "▁ਤਰੀਕ": 4191,
      "▁ਨਿਪਟਾਰਾ": 4192,
      "▁|": 4193,
      "▁ਮਨੁੱਖ": 4194,
      "ਨਾਮਾ": 4195,
      "ਟੀਫਿਕੇਟ": 4196,
      "hic": 4197,
      "▁Mah": 4198,
      "▁Adv": 4199,
      "band": 4200,
      "ars": 4201,
      "▁mot": 4202,
      "ਮਾਨਤ": 4203,
      "lied": 4204,
      "▁ਸਰਟੀਫਿਕੇਟ": 4205,
      "▁incre": 4206,
      "▁Eng": 4207,
      "▁project": 4208,
      "▁decided": 4209,
      "▁ਸਥਿਤੀਆਂ": 4210,
      "▁ਜ਼ਖ": 4211,
      "ੇਰ": 4212,
      "▁class": 4213,
      "▁goods": 4214,
      "▁ਸ਼ਬਦਾਂ": 4215,
      "ੈਸਟ": 4216,
      "▁transfer": 4217,
      "▁ਜੋੜ": 4218,
      "alਨਲ": 4219,
      "ER": 4220,
      "▁-2": 4221,
      "▁suff": 4222,
      "▁ਲਏ": 4223,
      "▁ਗਿਆ,": 4224,
      "duced": 4225,
      "▁hel": 4226,
      ".ਏ": 4227,
      "▁ਪ੍ਰਭਾਵਤ": 4228,
      "▁lic": 4229,
      "▁ਪ੍ਰਣਾਲੀ": 4230,
      ".2013": 4231,
      "▁2006": 4232,
      "▁ਦਰਸਾਉਂਦਾ": 4233,
      "▁ਸਿਫਾਰ": 4234,
      "▁otherwise": 4235,
      "▁towards": 4236,
      "▁ਸਮੀਖਿਆ": 4237,
      "ਐਫ": 4238,
      "ਮੋ": 4239,
      "▁produced": 4240,
      "▁away": 4241,
      "▁keep": 4242,
      "e,": 4243,
      "ruct": 4244,
      "▁list": 4245,
      "▁medical": 4246,
      "▁exper": 4247,
      "▁ਮੁਹ": 4248,
      "▁ਮੁੱ": 4249,
      "ੱਕੀ": 4250,
      "▁ਤਬਦੀਲ": 4251,
      "▁ਟ੍ਰਿਬਿalਨਲ": 4252,
      "ificate": 4253,
      "▁ਪੋਸਟ": 4254,
      "ਲਤ": 4255,
      "▁wife": 4256,
      "▁ਅਜੇ": 4257,
      ".2014": 4258,
      "ense": 4259,
      "▁techn": 4260,
      "cing": 4261,
      "▁provide": 4262,
      "ger": 4263,
      "ਕੁ": 4264,
      "▁last": 4265,
      "ਅਮ": 4266,
      "▁fe": 4267,
      "▁policy": 4268,
      "▁ਸਕੂਲ": 4269,
      "sure": 4270,
      "▁ਪਤੀ": 4271,
      "▁ਠਹਿਰਾਇਆ": 4272,
      "▁sub-section": 4273,
      "▁recover": 4274,
      "urrence": 4275,
      "resh": 4276,
      "▁ਪ੍ਰਦਰਸ਼ਨ": 4277,
      "▁(i": 4278,
      "▁light": 4279,
      "▁1,": 4280,
      "ੀਕ": 4281,
      "50": 4282,
      "▁ਟ੍ਰ": 4283,
      "▁ਨਿਯਮਤ": 4284,
      "ਜਿਸਟਰੇਟ": 4285,
      "the": 4286,
      "▁ਸਿਫਾਰਸ਼": 4287,
      "ways": 4288,
      "ਨਿਆਦੀ": 4289,
      "▁Dr.": 4290,
      "ਾਰਥ": 4291,
      "▁ਜ਼ਿੰਮੇਵਾਰ": 4292,
      "ਮੁੱਖ": 4293,
      "▁FIR": 4294,
      "▁ਅੱਜ": 4295,
      "▁ਦਸ": 4296,
      "▁bre": 4297,
      "usband": 4298,
      "▁ਮਹੀਨਿਆਂ": 4299,
      "▁correct": 4300,
      "az": 4301,
      "▁ann": 4302,
      "ੁੱਟੀ": 4303,
      "▁development": 4304,
      "▁ਮੈਜਿਸਟਰੇਟ": 4305,
      "▁relating": 4306,
      "▁ਜਮ੍ਹਾਂ": 4307,
      "▁ਨਵ": 4308,
      "▁thereof": 4309,
      "▁separ": 4310,
      "oh": 4311,
      "▁government": 4312,
      "▁less": 4313,
      "▁ਬੁਨਿਆਦੀ": 4314,
      "ਾਈਲ": 4315,
      "▁ਖ਼ਾਸ": 4316,
      "ers.\n": 4317,
      "▁appre": 4318,
      "▁ਮੌਕੇ": 4319,
      "ertain": 4320,
      "▁original": 4321,
      "▁procedure": 4322,
      "▁head": 4323,
      "na": 4324,
      "▁ਡਿਵੀਜ਼ਨ": 4325,
      "▁princi": 4326,
      "▁ਉਸਦਾ": 4327,
      "▁ਗਈ।\n": 4328,
      "ਕਾਨੂੰ": 4329,
      "ੋੜ": 4330,
      "▁therefore": 4331,
      "ਯੁਕਤ": 4332,
      "▁ਸਹੂਲ": 4333,
      "▁ਕੌਂ": 4334,
      "▁Univers": 4335,
      "▁affect": 4336,
      "▁tru": 4337,
      "▁ਵਪਾਰਕ": 4338,
      "ਵਿੱ": 4339,
      "ਜ਼ਾਰ": 4340,
      "▁ਵੱਡੀ": 4341,
      "ify": 4342,
      "▁ਘੱਟੋ": 4343,
      "▁force": 4344,
      "soci": 4345,
      "▁ਲੇਖ": 4346,
      "▁ਅਪ੍ਰ": 4347,
      "▁ਦਿੱਤਾ।\n": 4348,
      "ging": 4349,
      "utive": 4350,
      "▁general": 4351,
      "empt": 4352,
      "ield": 4353,
      "▁ਦੁਰ": 4354,
      "▁Rep": 4355,
      "▁States": 4356,
      "▁ਆਜ਼ਾਦੀ": 4357,
      "▁ਰਸ": 4358,
      ".2012": 4359,
      "▁These": 4360,
      "ies.\n": 4361,
      "ouncil": 4362,
      "30": 4363,
      "ਪੱਖ": 4364,
      "▁established": 4365,
      "▁Special": 4366,
      "▁Not": 4367,
      "▁adop": 4368,
      "▁ਪੈਨ": 4369,
      "▁ਮੱਦੇਨਜ਼ਰ,": 4370,
      "war": 4371,
      "▁vehic": 4372,
      "ਨਾਲ": 4373,
      "▁event": 4374,
      "/200": 4375,
      "conom": 4376,
      "▁ਵਧਾਉਣ": 4377,
      "▁ਵੇਲੇ": 4378,
      "ਮਨ": 4379,
      "ਖੇਪ": 4380,
      "▁money": 4381,
      "▁went": 4382,
      "▁ਦਸਤ": 4383,
      "▁\"I": 4384,
      "ace": 4385,
      "▁(ਸੀ": 4386,
      "▁prog": 4387,
      "▁election": 4388,
      "▁finding": 4389,
      "with": 4390,
      "▁ਸੁਰੱਖਿਅਤ": 4391,
      "▁liable": 4392,
      "▁similar": 4393,
      "▁Rs.": 4394,
      "▁Parlia": 4395,
      "▁regular": 4396,
      "▁ਕਾਲਜ": 4397,
      "▁pref": 4398,
      "▁interpre": 4399,
      "▁ਪੂਰੇ": 4400,
      "sw": 4401,
      "▁contained": 4402,
      "▁ਸਰੋ": 4403,
      "▁ਮੈਡੀਕਲ": 4404,
      "a)": 4405,
      "▁ਛੁੱਟੀ": 4406,
      "▁Appeal": 4407,
      "▁limit": 4408,
      "▁ਵੱਡੇ": 4409,
      "▁vac": 4410,
      "▁(supra)": 4411,
      "▁ਬਣਾਈ": 4412,
      "▁Courts": 4413,
      "▁paragraph": 4414,
      "▁ਗਿਣਤੀ": 4415,
      "▁ਮਤ": 4416,
      "▁ਭੇਜਿਆ": 4417,
      "▁Order": 4418,
      "▁exam": 4419,
      "ici": 4420,
      "▁Tribunal": 4421,
      "▁help": 4422,
      "▁ਕਰਨੀ": 4423,
      "▁ਮੁੱਲ": 4424,
      "ਇਸ": 4425,
      "▁ਪਏਗਾ": 4426,
      "▁treat": 4427,
      "▁OF": 4428,
      "IT": 4429,
      "▁194": 4430,
      "▁ਹੈ;": 4431,
      "▁ਪਾਰ": 4432,
      "▁ਸਹਿਮਤ": 4433,
      "▁objection": 4434,
      "▁note": 4435,
      "ਿਨ": 4436,
      "▁ਪ੍ਰਬੰਧਾਂ": 4437,
      ":\n": 4438,
      "▁ਐਲਾਨ": 4439,
      "▁run": 4440,
      "▁ਤਰੀਕੇ": 4441,
      "ਸਕਾਰ": 4442,
      "▁become": 4443,
      "▁lo": 4444,
      "riage": 4445,
      "ਾਈਆਂ": 4446,
      "▁plead": 4447,
      "ਜਰ": 4448,
      "▁ਲਾਇਸੈਂਸ": 4449,
      "pe": 4450,
      "▁ਸੰਤੁ": 4451,
      "ines": 4452,
      "▁ਮੌਕਾ": 4453,
      "▁ਸੰਸਦ": 4454,
      "▁ਪ੍ਰਮੁੱਖ": 4455,
      "▁share": 4456,
      "oid": 4457,
      "▁appears": 4458,
      "medi": 4459,
      "ਥਿਕ": 4460,
      "iber": 4461,
      "▁heard": 4462,
      "▁ਉਦੋਂ": 4463,
      "▁ਤਾਰੀ": 4464,
      "▁ਪੰਚ": 4465,
      "▁arrest": 4466,
      "▁months": 4467,
      "ਟਲ": 4468,
      "ity,": 4469,
      "▁ਨਿਵੇਸ਼": 4470,
      "▁prep": 4471,
      "▁thus": 4472,
      "▁services": 4473,
      "▁occurrence": 4474,
      "▁ਸਕੀਮ": 4475,
      "▁that,": 4476,
      "al,": 4477,
      "ਟਾਉਣ": 4478,
      "▁market": 4479,
      "▁financial": 4480,
      "▁proved": 4481,
      "▁ਦਫ": 4482,
      "-ਅ": 4483,
      "▁ਫ਼ਰ": 4484,
      "▁substant": 4485,
      "▁ਕੀਤਾ.\n": 4486,
      "▁ਖਾਲੀ": 4487,
      "▁ਕੇਂਦਰੀ": 4488,
      "▁review": 4489,
      "agement": 4490,
      "▁cap": 4491,
      "▁ਸ਼ੁਰੂਆਤ": 4492,
      "ਟਕ": 4493,
      "ata": 4494,
      "ਰਾਸਤ": 4495,
      "amp": 4496,
      "▁Pl": 4497,
      "▁respective": 4498,
      "ajor": 4499,
      "▁100": 4500,
      "ਰਾਨੀ": 4501,
      "▁ਜੀਵਨ": 4502,
      "▁ਨਿਰਣਾ": 4503,
      "ਤੀਆਂ": 4504,
      "ਨਰ": 4505,
      "igned": 4506,
      "▁extent": 4507,
      "▁Nos": 4508,
      "▁ਦਸਤਾਵੇਜ਼ਾਂ": 4509,
      "▁real": 4510,
      "atural": 4511,
      "▁rate": 4512,
      "▁ਇਸਦੀ": 4513,
      "▁ਨਵੇਂ": 4514,
      "▁near": 4515,
      "▁ਦਿੱਤੀਆਂ": 4516,
      "▁ਕਾਪੀ": 4517,
      "▁construction": 4518,
      "▁ਕੁਦਰਤੀ": 4519,
      "▁Law": 4520,
      "▁indep": 4521,
      "acy": 4522,
      "ਵਿਧ": 4523,
      "ੜੀਆਂ": 4524,
      "orth": 4525,
      "▁ਸਿੰਗ": 4526,
      "hold": 4527,
      "▁nex": 4528,
      "▁fram": 4529,
      "▁ਕੌਂਸਲ": 4530,
      "▁Counsel": 4531,
      "▁ਲੱਗਦਾ": 4532,
      "▁los": 4533,
      "▁ਬੱਚੇ": 4534,
      "ਵੋ": 4535,
      "▁ਰੱਖੀ": 4536,
      "▁ਸੰਭਵ": 4537,
      "▁br": 4538,
      "ਲੇਖ": 4539,
      "▁ਵਿਦੇਸ਼": 4540,
      "▁ਵਾਜਬ": 4541,
      "▁ਵਿਦਿਆਰ": 4542,
      "▁Director": 4543,
      "▁husband": 4544,
      "7)": 4545,
      "▁really": 4546,
      "▁ਖੇਤਰਾਂ": 4547,
      "adesh": 4548,
      "▁National": 4549,
      "▁civil": 4550,
      "ਫੀ": 4551,
      "▁ਕੁਲ": 4552,
      "▁India,": 4553,
      "▁ਜਾਏਗੀ": 4554,
      "▁ਇਤਰਾਜ਼": 4555,
      "▁rules": 4556,
      "▁ਫੀ": 4557,
      "▁administr": 4558,
      "umb": 4559,
      "▁Council": 4560,
      "aking": 4561,
      "▁ਸੁਭ": 4562,
      "▁Minister": 4563,
      "▁Code": 4564,
      "isition": 4565,
      "itor": 4566,
      "alth": 4567,
      "enal": 4568,
      "ower": 4569,
      "ੰਸ": 4570,
      "▁ਵਿਚਾਰਾਂ": 4571,
      "▁total": 4572,
      "▁ਜ਼ਮਾਨਤ": 4573,
      ".ਆਈ": 4574,
      "ਪ੍ਰ": 4575,
      "▁Department": 4576,
      "▁deed": 4577,
      "▁pending": 4578,
      "▁sal": 4579,
      "ਪੂਰਨ": 4580,
      "▁ਲੱਖ": 4581,
      "▁ਪੁਰਾ": 4582,
      "▁ਰਹਿਣ": 4583,
      "▁ਨੁਮ": 4584,
      "▁eng": 4585,
      "ਟਮ": 4586,
      "ar,": 4587,
      "ਬੱਧ": 4588,
      "▁ਦੇਵੇਗਾ": 4589,
      "ਜ਼ਦ": 4590,
      "▁Te": 4591,
      "▁ਪ੍ਰੀਖਿਆ": 4592,
      "▁powers": 4593,
      "▁applicant": 4594,
      "arr": 4595,
      "▁noted": 4596,
      "▁applicable": 4597,
      "▁ਨੁਮਾਇ": 4598,
      "▁ਨਾਲ਼": 4599,
      "▁filing": 4600,
      "▁ਦੋਸ਼ਾਂ": 4601,
      "▁Mad": 4602,
      "▁holding": 4603,
      "▁still": 4604,
      "ਚਰ": 4605,
      "ਫਰ": 4606,
      "▁ਦਫਤਰ": 4607,
      "▁principles": 4608,
      "▁ਸਥਾਪਨਾ": 4609,
      "▁ਤਾਰੀਖ": 4610,
      "ੈਟ": 4611,
      "▁answ": 4612,
      "▁courts": 4613,
      "▁ਸੁਭਾਅ": 4614,
      "▁qual": 4615,
      "▁bail": 4616,
      "ulated": 4617,
      "▁ਦੂਜੀ": 4618,
      "▁copy": 4619,
      "▁function": 4620,
      "▁him.\n": 4621,
      "▁ਖੁਲਾਸਾ": 4622,
      ".2011": 4623,
      "▁ਇਮ": 4624,
      "ked": 4625,
      "▁ਲਾਲ": 4626,
      "▁brother": 4627,
      "▁40": 4628,
      "▁ਗ੍ਰਿ": 4629,
      "▁initi": 4630,
      "▁ਤਰੱਕੀ": 4631,
      "▁recogn": 4632,
      "▁oblig": 4633,
      "▁ਵਾਧੂ": 4634,
      "▁ਵਿਰੋਧੀ": 4635,
      "▁opportunity": 4636,
      "▁above,": 4637,
      "▁intention": 4638,
      "▁ਸੁਝਾਅ": 4639,
      "▁constitutional": 4640,
      "t.": 4641,
      "▁Cla": 4642,
      "▁succ": 4643,
      "▁term": 4644,
      "ves": 4645,
      "▁five": 4646,
      "▁ey": 4647,
      "▁ਹੋਵੇਗਾ.\n": 4648,
      "land": 4649,
      "▁pointed": 4650,
      "▁giving": 4651,
      "▁submits": 4652,
      "▁world": 4653,
      "▁Hon": 4654,
      "▁Commissioner": 4655,
      "▁ਡੀਡ": 4656,
      "ism": 4657,
      "▁ਸਿੰਗਲ": 4658,
      "ਿਅ": 4659,
      "▁prescribed": 4660,
      "ert": 4661,
      "▁undert": 4662,
      "▁err": 4663,
      "▁decla": 4664,
      "▁therein": 4665,
      "▁ਜਾਵੇਗਾ.\n": 4666,
      "▁ਸਬ": 4667,
      "▁want": 4668,
      "mb": 4669,
      ".ਆਰ": 4670,
      "▁ਨਹੀਂ,": 4671,
      "▁ਰੱਖੇ": 4672,
      "▁cross-": 4673,
      "8)": 4674,
      "ashtra": 4675,
      "ੱਈ": 4676,
      "▁means": 4677,
      "▁employees": 4678,
      ".-": 4679,
      "▁ਰਜਿਸ": 4680,
      "▁Serv": 4681,
      "▁main": 4682,
      "▁ਦਿਲਚ": 4683,
      "▁major": 4684,
      "▁provides": 4685,
      "ਵਾਸੀ": 4686,
      "▁ਪਾਬੰਦੀ": 4687,
      "▁ਸੈਸ਼ਨ": 4688,
      "▁ਤਸ": 4689,
      "ਹਿਸ": 4690,
      "ਾਬ": 4691,
      "ਸੂਸ": 4692,
      "▁ਮਦ": 4693,
      "▁caused": 4694,
      "▁ਪੁਰਸਕਾਰ": 4695,
      "▁charges": 4696,
      "▁ਸੰਖੇਪ": 4697,
      "▁econom": 4698,
      "▁ਕਰੇਗੀ": 4699,
      "▁tend": 4700,
      "▁fall": 4701,
      "▁ਹਮਲਾ": 4702,
      "ਗਾਰ": 4703,
      "▁known": 4704,
      "▁ful": 4705,
      "▁ਸਿਰਲੇਖ": 4706,
      "▁ਰੱਖਦਾ": 4707,
      "▁ਪਹਿਲਾਂ,": 4708,
      "ੋਂਦ": 4709,
      "akh": 4710,
      "▁ess": 4711,
      "▁ਭਰਾ": 4712,
      "▁ਜਾਂਦੀਆਂ": 4713,
      "▁ਸੀਮਤ": 4714,
      "▁assessee": 4715,
      "▁declar": 4716,
      "omin": 4717,
      "td": 4718,
      "part": 4719,
      "acc": 4720,
      "▁ਸੁਧਾਰ": 4721,
      "▁working": 4722,
      "OR": 4723,
      "▁ਤਰਜੀ": 4724,
      "augh": 4725,
      "▁nam": 4726,
      "▁ਕਰੋੜ": 4727,
      "ਕਾਨੂੰਨੀ": 4728,
      "eed": 4729,
      "ੰਦੇ": 4730,
      "▁ਡਾਕਟਰ": 4731,
      "ੱਡਾ": 4732,
      "▁ਚੈ": 4733,
      "▁pursu": 4734,
      "▁ਨਿਰਪੱਖ": 4735,
      "▁ਜ਼ਬਤ": 4736,
      "▁ਮਹਿਸੂਸ": 4737,
      "▁ਗਵਾਹੀ": 4738,
      "▁ਕਾਰਵਾਈਆਂ": 4739,
      "ੰਗਲ": 4740,
      "▁ਅੰਕ": 4741,
      "▁Public": 4742,
      "▁decisions": 4743,
      "ੱਤਾ": 4744,
      "C.": 4745,
      "▁ਪੁਸ਼ਟੀ": 4746,
      "▁ਇਲਾਜ": 4747,
      "an,": 4748,
      "▁defence": 4749,
      "▁dri": 4750,
      "BI": 4751,
      "▁unless": 4752,
      "▁ਮਾਰਚ": 4753,
      "▁Be": 4754,
      "▁ਕਾਨੂੰਨਾਂ": 4755,
      "▁ਕੀਤੀ.\n": 4756,
      "-in": 4757,
      "▁matters": 4758,
      "ਸ਼ਲ": 4759,
      "ony": 4760,
      "▁ਕਿ,": 4761,
      "▁instru": 4762,
      "▁ਬੋਲੀ": 4763,
      "▁ਧੋ": 4764,
      "▁serious": 4765,
      "▁failed": 4766,
      "-ਜ": 4767,
      "▁Co": 4768,
      "▁large": 4769,
      "▁ਨਾਲੋਂ": 4770,
      "▁thought": 4771,
      "▁conviction": 4772,
      "ਨ,": 4773,
      "▁ਸ਼ਰ": 4774,
      "▁mand": 4775,
      "▁ਮੁਆਵਜ਼ੇ": 4776,
      "▁ਉਦਾ": 4777,
      "▁ਬਰੀ": 4778,
      "▁organ": 4779,
      "▁2004": 4780,
      "law": 4781,
      "▁ਜਾਪ": 4782,
      "▁mother": 4783,
      ".2010": 4784,
      "to": 4785,
      "▁challenge": 4786,
      "yond": 4787,
      "▁premis": 4788,
      "▁six": 4789,
      "▁ਫੰਡ": 4790,
      "▁children": 4791,
      "▁Leg": 4792,
      "▁ਖਿਲਾ": 4793,
      "▁ਹੋਏ,": 4794,
      ".ਡੀ": 4795,
      "ons": 4796,
      "▁To": 4797,
      "▁ਪੈਨਸ਼ਨ": 4798,
      "▁level": 4799,
      "▁ਝੂ": 4800,
      "▁ਤੁਹਾਡੇ": 4801,
      "▁dead": 4802,
      "▁India.\n": 4803,
      "▁Rul": 4804,
      "▁ਹਮੇਸ਼": 4805,
      "▁ਵੱਡਾ": 4806,
      "▁prim": 4807,
      "▁asse": 4808,
      "▁ਵਿਅਕਤੀਗਤ": 4809,
      "▁ਅਧਾਰਤ": 4810,
      "▁ਚਾਹੁੰਦਾ": 4811,
      "asion": 4812,
      "ਹਰਾ": 4813,
      "ana": 4814,
      "▁ਉਹੀ": 4815,
      "▁ਵਿਸਥ": 4816,
      "-201": 4817,
      "▁injuries": 4818,
      "▁ਸਹਾਇਕ": 4819,
      "ਮਲ": 4820,
      "▁sufficient": 4821,
      "▁absence": 4822,
      "▁merit": 4823,
      "▁told": 4824,
      "▁leave": 4825,
      "▁ਪੈਂਦਾ": 4826,
      "▁Ltd": 4827,
      "▁ਸੰਗ": 4828,
      "▁Al": 4829,
      "▁ਖਿਲਾਫ": 4830,
      "▁ਨਿਰਦੇਸ਼ਾਂ": 4831,
      "ਹਾਨੂੰ": 4832,
      "▁beyond": 4833,
      "▁ਲਈ.\n": 4834,
      "▁resident": 4835,
      "▁appeals": 4836,
      "att": 4837,
      "▁ਵੱਖਰਾ": 4838,
      "▁ਆਰਥਿਕ": 4839,
      "▁ਕੇਸਾਂ": 4840,
      "uf": 4841,
      "▁Even": 4842,
      "ਸ਼ਾਲੀ": 4843,
      "▁file": 4844,
      "uly": 4845,
      "gr": 4846,
      "97": 4847,
      "▁.2": 4848,
      "▁guil": 4849,
      "▁lease": 4850,
      "▁concerned,": 4851,
      "▁village": 4852,
      "ends": 4853,
      "ledge": 4854,
      "▁ਪ੍ਰਾਪਤੀ": 4855,
      "▁ਤੁਹਾਨੂੰ": 4856,
      "▁Authority": 4857,
      "▁ਵਾਹਨ": 4858,
      "hen": 4859,
      "▁refer": 4860,
      "▁ਨਿਰੰਤਰ": 4861,
      "▁Chand": 4862,
      "ably": 4863,
      "venue": 4864,
      "ੈਂਡਰ": 4865,
      "▁neg": 4866,
      "▁enc": 4867,
      "▁ਬਲਾ": 4868,
      "▁PW-1": 4869,
      "▁ਹਵਾਲੇ": 4870,
      "omb": 4871,
      "▁ਕਾਰਪੋਰੇਸ਼ਨ": 4872,
      "▁ਵਸ": 4873,
      "▁ਚਿੰ": 4874,
      "▁32": 4875,
      "▁conducted": 4876,
      "▁ਅਸਾਮੀਆਂ": 4877,
      "▁ਕਹਿੰਦਾ": 4878,
      "▁ਫ਼ੈਸਲਾ": 4879,
      "▁ਸਮਾਨ": 4880,
      "▁control": 4881,
      "▁ਬਨਾਮ": 4882,
      "▁nothing": 4883,
      "▁specified": 4884,
      "imum": 4885,
      "ਡਲ": 4886,
      "hav": 4887,
      "▁prove": 4888,
      "▁offences": 4889,
      "▁sanction": 4890,
      "▁ਸ਼ੇਅਰ": 4891,
      "▁ਕਰਦਿਆਂ,": 4892,
      "▁school": 4893,
      "▁deem": 4894,
      "▁ਸਿੱਖ": 4895,
      "▁ਗ੍ਰਿਫਤ": 4896,
      "▁employee": 4897,
      "ਰਾਜ": 4898,
      "▁third": 4899,
      "ani": 4900,
      "IC": 4901,
      "▁ਵਿਆਪਕ": 4902,
      "▁got": 4903,
      "▁great": 4904,
      "▁ਸਿਖ": 4905,
      "▁next": 4906,
      "anj": 4907,
      "▁2003": 4908,
      "▁ਭਰੋਸੇ": 4909,
      "ught": 4910,
      "▁ਅਲ": 4911,
      "▁ਰਾਜਾਂ": 4912,
      "▁fair": 4913,
      "▁ਦਸਤਖਤ": 4914,
      "▁2002": 4915,
      "▁ਮੁਕਾ": 4916,
      "▁ਸਿਧਾਂਤਾਂ": 4917,
      "▁ਵਿਰੋਧ": 4918,
      "ਡੂ": 4919,
      ":-": 4920,
      "ੰਸੀ": 4921,
      "▁ri": 4922,
      "ਨਿਕ": 4923,
      "aged": 4924,
      "▁ਲੱਭ": 4925,
      "▁treated": 4926,
      "▁purpos": 4927,
      "▁Cont": 4928,
      "▁Secret": 4929,
      "que": 4930,
      "▁merely": 4931,
      "ises": 4932,
      "▁ਦਰਖਾਸਤ": 4933,
      "▁ਸਵੈ": 4934,
      "▁sing": 4935,
      "ers,": 4936,
      "▁(200": 4937,
      "▁candidates": 4938,
      "▁ਨਾਗਰ": 4939,
      "▁notification": 4940,
      "itle": 4941,
      "▁ਉਥੇ": 4942,
      "▁ਸਥਿਤ": 4943,
      "▁informed": 4944,
      "▁Appellant": 4945,
      "▁immedi": 4946,
      "ੰਟੀ": 4947,
      "▁sugg": 4948,
      "9)": 4949,
      "▁bar": 4950,
      "▁ਅਫਸਰ": 4951,
      "▁free": 4952,
      "▁ਵੈ": 4953,
      "▁stay": 4954,
      "▁ਕੈਦ": 4955,
      "able.\n": 4956,
      "▁(ਅ": 4957,
      "▁star": 4958,
      ".2007": 4959,
      "▁ਮਾਨਤਾ": 4960,
      "▁disch": 4961,
      "▁ਕੁੱਲ": 4962,
      "▁denied": 4963,
      "▁full": 4964,
      "▁ਪਰਿਭਾ": 4965,
      "▁gener": 4966,
      "▁settled": 4967,
      "▁ਸਪਲਾਈ": 4968,
      "▁ਬੱਚਿਆਂ": 4969,
      "▁ਕੰਪਨੀਆਂ": 4970,
      "▁maintain": 4971,
      "▁product": 4972,
      "ience": 4973,
      "▁norm": 4974,
      "▁Pradesh": 4975,
      "ਧਾਰਣ": 4976,
      "▁human": 4977,
      "▁Parliament": 4978,
      "▁certificate": 4979,
      "▁ਸੰਬੰਧੀ": 4980,
      "▁crime": 4981,
      "▁ਜਾਏਗਾ": 4982,
      "▁price": 4983,
      "▁sust": 4984,
      "▁ਫੀਸ": 4985,
      "ipt": 4986,
      "▁Writ": 4987,
      "▁dam": 4988,
      "▁ਰਿਟ": 4989,
      "▁ਵਪਾਰ": 4990,
      "▁ਨਾਗਰਿਕ": 4991,
      "▁No.3": 4992,
      ".2009": 4993,
      "▁ਤਰਜੀਹ": 4994,
      "ਵਿਆਂ": 4995,
      "▁allot": 4996,
      "▁natural": 4997,
      "ined": 4998,
      "ਰਾਬ": 4999,
      "▁official": 5000,
      "▁time,": 5001,
      "▁higher": 5002,
      "ਜਾਏ": 5003,
      "▁return": 5004,
      "▁notic": 5005,
      "▁restr": 5006,
      "▁fal": 5007,
      "▁super": 5008,
      "▁Corporation": 5009,
      "ਕਰੀ": 5010,
      "▁ਮੁਸ਼ਕਲ": 5011,
      "ਤਲ": 5012,
      "▁ਟਰੱਸ": 5013,
      "▁step": 5014,
      "▁admission": 5015,
      "▁ਗਈ.\n": 5016,
      "▁(b": 5017,
      "▁ਨਿਰੀ": 5018,
      "▁himself": 5019,
      "▁ਸਰਵ": 5020,
      "▁ਅਟ": 5021,
      "▁claimed": 5022,
      "angu": 5023,
      "▁ਆਯੋਜ": 5024,
      "ਬਾਲ": 5025,
      "ਵਰੀ,": 5026,
      "▁wee": 5027,
      "▁side": 5028,
      "-c": 5029,
      "▁acquit": 5030,
      "ਸਾਇ": 5031,
      "▁ਇਮਾਰਤ": 5032,
      "▁involved": 5033,
      "▁always": 5034,
      "▁ਬੀਮਾ": 5035,
      "▁ਨਿਯੰਤਰਣ": 5036,
      "▁recommend": 5037,
      "60": 5038,
      "▁ਭੂਮ": 5039,
      "▁ਠੇ": 5040,
      "▁Single": 5041,
      "',": 5042,
      "▁ਸਿਹਤ": 5043,
      "▁Senior": 5044,
      "ID": 5045,
      ".00": 5046,
      "▁mur": 5047,
      "▁spot": 5048,
      "▁ensure": 5049,
      "ੁੱਝ": 5050,
      "▁meas": 5051,
      "▁35": 5052,
      "▁arbitration": 5053,
      "ling": 5054,
      "▁considering": 5055,
      "▁wr": 5056,
      "▁March": 5057,
      "▁ਅਲਾਟ": 5058,
      "▁best": 5059,
      "ੰਦਰ": 5060,
      "▁ਪੈਸੇ": 5061,
      "▁plan": 5062,
      "▁health": 5063,
      "ਦਨ": 5064,
      "istration": 5065,
      "▁Jan": 5066,
      "ਕੇਟ": 5067,
      "▁group": 5068,
      "ਦਿਆਂ,": 5069,
      "▁ਅਚ": 5070,
      "▁bal": 5071,
      "▁ਮੁਕਾਬ": 5072,
      "ਿਪ": 5073,
      "▁ਤਕਨੀ": 5074,
      "▁too": 5075,
      "▁ਮਸ਼": 5076,
      "▁ਬਰਾਮਦ": 5077,
      "▁ਅਵਧੀ": 5078,
      "▁ਜ਼ਖਮੀ": 5079,
      "▁ਸੰਬੰਧਿਤ": 5080,
      "▁(S": 5081,
      "▁ਨਿਰਣੇ": 5082,
      "▁ਦਿਖ": 5083,
      "examin": 5084,
      "ancy": 5085,
      "ufact": 5086,
      "▁ਅਪ੍ਰੈਲ": 5087,
      "▁ਬਕ": 5088,
      "vest": 5089,
      "▁later": 5090,
      "▁them.\n": 5091,
      "ization": 5092,
      "▁ਪ੍ਰੋਗ": 5093,
      "▁reserv": 5094,
      "▁secur": 5095,
      "▁ਭਾਸ਼ਾ": 5096,
      "▁vehicle": 5097,
      "aving": 5098,
      "ਸਾਇਟੀ": 5099,
      "▁ਕਰਕੇ,": 5100,
      "ਡਿੰਗ": 5101,
      "▁ਪਾਰਟੀਆਂ": 5102,
      "▁short": 5103,
      "ork": 5104,
      "arn": 5105,
      "▁ਮਾਂ": 5106,
      "▁ਭੂਮਿਕਾ": 5107,
      "▁bid": 5108,
      "▁ਕਿਵੇਂ": 5109,
      "▁among": 5110,
      "▁context": 5111,
      "ਿਹਾ": 5112,
      "▁el": 5113,
      "ੈਲੀ": 5114,
      "ipl": 5115,
      "ੋਸ": 5116,
      "ਗਿੱਛ": 5117,
      "▁today": 5118,
      "ਦੇਣ": 5119,
      "▁ਹਿਰਾਸਤ": 5120,
      "ਚਤ": 5121,
      "judic": 5122,
      "▁defendants": 5123,
      "thing": 5124,
      "▁belong": 5125,
      "▁es": 5126,
      "▁ਚਲ": 5127,
      "▁blood": 5128,
      "▁ਕਟ": 5129,
      "▁is,": 5130,
      "ties": 5131,
      "sh": 5132,
      "▁ਸੌ": 5133,
      ".2006": 5134,
      "▁ਅਨੁਸੂ": 5135,
      "ticles": 5136,
      "▁Thereafter": 5137,
      "▁po": 5138,
      "ਕੂ": 5139,
      "ਟ੍ਰ": 5140,
      "▁By": 5141,
      "▁particip": 5142,
      "▁ਹਥ": 5143,
      "ards": 5144,
      "ਜਲੀ": 5145,
      "▁ਨਿਰੀਖਣ": 5146,
      "▁ਬੁਲਾ": 5147,
      "▁Village": 5148,
      "ਠੀ": 5149,
      "▁ਬਜਾਏ": 5150,
      "pril": 5151,
      "▁receipt": 5152,
      "aughter": 5153,
      "▁fac": 5154,
      "▁member": 5155,
      "▁ਮੁਆਵਜ਼ਾ": 5156,
      "▁ਸੜ": 5157,
      "▁loss": 5158,
      "ਮਕ": 5159,
      "▁ਅਗਲੇ": 5160,
      "ercial": 5161,
      "ਿੱਲ": 5162,
      "ancell": 5163,
      "ਚਲ": 5164,
      "illed": 5165,
      "missible": 5166,
      "▁ਘਾਟ": 5167,
      "ope": 5168,
      "▁ਰੋਕਣ": 5169,
      "▁ਦਰਸਾਉਣ": 5170,
      "▁ਬਰਕਰਾਰ": 5171,
      "੍ਹੀ": 5172,
      "▁ਮਨੋਰ": 5173,
      "▁ਰਾਤ": 5174,
      "ਗਰੀ": 5175,
      "▁statute": 5176,
      ".2008": 5177,
      "ਤਾਵਰ": 5178,
      "ਬੰਦ": 5179,
      "ਾਲੀਆ": 5180,
      "▁carry": 5181,
      "IN": 5182,
      "▁ਮਾਤਰਾ": 5183,
      "▁ਰੱਖਦੇ": 5184,
      "▁2000": 5185,
      "ੈਡ": 5186,
      "ENT": 5187,
      "▁New": 5188,
      "▁arri": 5189,
      "▁ਮਹੀਨੇ": 5190,
      "▁ਵਿਸ਼ਵ": 5191,
      "▁false": 5192,
      "ਵਾਰਡ": 5193,
      "▁issues": 5194,
      "▁assessment": 5195,
      "ndered": 5196,
      "▁ਸੂਚਿਤ": 5197,
      "▁\"\"\n": 5198,
      "▁Such": 5199,
      "▁ਸਫਲ": 5200,
      "▁presence": 5201,
      "ਤਮਕ": 5202,
      "ਵੇਟ": 5203,
      "▁ਪ੍ਰੀ": 5204,
      "▁ਸੱਟਾਂ": 5205,
      "▁...": 5206,
      "▁Advocate": 5207,
      "▁ਮਿਲਿਆ": 5208,
      "▁ਪ੍ਰਾਈ": 5209,
      "▁ਵਾਤਾਵਰ": 5210,
      "ਕਾਰਾਂ": 5211,
      "▁ਦੂਜਾ": 5212,
      "▁situation": 5213,
      "▁(C": 5214,
      "▁vis": 5215,
      "▁ਜਿੱਥੋਂ": 5216,
      "▁ਵਿਕਲ": 5217,
      "▁ਵਿਦੇਸ਼ੀ": 5218,
      "▁ਦਰਜ਼": 5219,
      "ਾਰਡ": 5220,
      "▁ਵਿਧੀ": 5221,
      "▁ਕਾਰਜਾਂ": 5222,
      "▁@": 5223,
      "uled": 5224,
      "ਵਟ": 5225,
      "▁women": 5226,
      "▁60": 5227,
      "▁words": 5228,
      "▁ਥਾਂ": 5229,
      "▁occasion": 5230,
      "▁While": 5231,
      "▁S.": 5232,
      "▁states": 5233,
      "▁ਕਰੀ": 5234,
      "▁social": 5235,
      "▁ਆਖ": 5236,
      "▁ਖੇਤੀ": 5237,
      "▁promotion": 5238,
      "standing": 5239,
      "▁marriage": 5240,
      "vir": 5241,
      "▁Trial": 5242,
      "▁saf": 5243,
      "ਸੰਦ": 5244,
      "▁ਵਿਚਾਰਿਆ": 5245,
      "▁competent": 5246,
      "▁ਰੇਲ": 5247,
      "▁change": 5248,
      "▁ਮਾਰਕੀ": 5249,
      "▁.1": 5250,
      "▁diffic": 5251,
      "▁request": 5252,
      "▁ਸਵੇ": 5253,
      "▁makes": 5254,
      "or,": 5255,
      "▁ਸੰਯੁਕਤ": 5256,
      "▁communic": 5257,
      "ault": 5258,
      "▁ਕਾਇ": 5259,
      "▁ਅੰਗ": 5260,
      "▁ਦਰਸਾਏ": 5261,
      "▁knowledge": 5262,
      "▁ਸਥਾਨਕ": 5263,
      "▁Further,": 5264,
      "ਅਸਲ": 5265,
      "ਸਤੀ": 5266,
      "ists": 5267,
      "▁ਧਰਮ": 5268,
      "▁executed": 5269,
      "ructure": 5270,
      "▁ਮੌਜੂਦਗੀ": 5271,
      "▁ਪਿਆ": 5272,
      "▁ਇਹਨਾਂ": 5273,
      "▁ਐਚ": 5274,
      "▁bring": 5275,
      "▁ਹਥਿਆਰ": 5276,
      "▁port": 5277,
      "ਵਾਦੀ": 5278,
      "▁title": 5279,
      "▁relations": 5280,
      "▁penal": 5281,
      "▁Since": 5282,
      "▁ਘੋਸ਼ਣਾ": 5283,
      "▁instant": 5284,
      "▁ਹਿੱਤ": 5285,
      "▁ਪ੍ਰਸ਼ਾਸ": 5286,
      "▁ਕ੍ਰਮ": 5287,
      "▁daughter": 5288,
      "-s": 5289,
      "▁essential": 5290,
      "ੋਰੀ": 5291,
      "amm": 5292,
      "▁ਵਾਤਾਵਰਣ": 5293,
      "▁ਪੁੱਛਗਿੱਛ": 5294,
      "▁applied": 5295,
      "acher": 5296,
      "▁kept": 5297,
      "ੋਸੀ": 5298,
      "▁relation": 5299,
      "ੜਿਆਂ": 5300,
      "▁around": 5301,
      "▁says": 5302,
      "▁impro": 5303,
      ".m": 5304,
      "ium": 5305,
      "▁road": 5306,
      "▁ਰਜਿਸਟਰਡ": 5307,
      "▁somet": 5308,
      "ੇਸ਼ਾਨ": 5309,
      "▁Part": 5310,
      "▁Petitioner": 5311,
      "▁prepared": 5312,
      "al.\n": 5313,
      "anies": 5314,
      "ਿਵ": 5315,
      "▁ਗਣ": 5316,
      "ਦਾਇ": 5317,
      "lege": 5318,
      "▁shown": 5319,
      "ਬਾਜ਼ੀ": 5320,
      "▁impr": 5321,
      "ਸ਼ਨਲ": 5322,
      "-ਦੇਣ": 5323,
      "ਤਾ,": 5324,
      "▁.3": 5325,
      "▁manufact": 5326,
      "-4": 5327,
      "rix": 5328,
      "▁field": 5329,
      "urance": 5330,
      "▁whole": 5331,
      "eb": 5332,
      "▁coun": 5333,
      "ਗੇ.\n": 5334,
      "▁ਐਸਸੀ": 5335,
      "▁(4)": 5336,
      "▁owner": 5337,
      "▁Jun": 5338,
      "▁Legisl": 5339,
      "▁ਲੀਜ਼": 5340,
      "20": 5341,
      "▁ਉਦਾਹਰ": 5342,
      "▁ਮਤਲਬ": 5343,
      "▁ਉਠਾ": 5344,
      "ieve": 5345,
      "▁implement": 5346,
      "▁ਜਿੰ": 5347,
      "omp": 5348,
      "▁ਮਨੁੱਖੀ": 5349,
      "hedu": 5350,
      "▁Under": 5351,
      "▁additional": 5352,
      "▁ਨਹੀਂ.\n": 5353,
      "▁ਸੰਚਾਰ": 5354,
      "▁ਕਾਇਮ": 5355,
      "▁ਏਜੰਸੀ": 5356,
      "▁commission": 5357,
      "▁ਦੌਰਾਨ,": 5358,
      "▁appreci": 5359,
      "▁true": 5360,
      "▁IPC": 5361,
      "den": 5362,
      "hedule": 5363,
      "HE": 5364,
      "▁wrong": 5365,
      "▁home": 5366,
      "▁ਬਾਲ": 5367,
      "▁ਦਰਮ": 5368,
      "▁trust": 5369,
      "▁ਸੁਲ": 5370,
      "ires": 5371,
      "ਥੀਆਂ": 5372,
      "▁imprison": 5373,
      "dra": 5374,
      "▁ਡਾ.": 5375,
      "▁May": 5376,
      "▁ਉੱਤਰਦਾਤਾਵਾਂ": 5377,
      "iving": 5378,
      "▁ਕਦਮ": 5379,
      ".ਐੱਸ": 5380,
      "ਗਿਆਨ": 5381,
      "▁ਵਿਸਥਾਰ": 5382,
      "▁declared": 5383,
      "▁termin": 5384,
      "▁independent": 5385,
      "▁ਪ੍ਰਧਾਨ": 5386,
      "ours": 5387,
      "▁ਸਕਦੀਆਂ": 5388,
      "▁ਜਦ": 5389,
      "▁ਗਿਆਨ": 5390,
      "▁ਸੁਸਾਇਟੀ": 5391,
      "ਜ਼ਗਾਰ": 5392,
      "▁ਮਾਨਯੋਗ": 5393,
      "▁ਸੈਕਸ਼ਨ": 5394,
      "▁meeting": 5395,
      "▁argued": 5396,
      "▁execution": 5397,
      "▁bor": 5398,
      "ਦੰਡ": 5399,
      "▁(201": 5400,
      "ਸਪੀ": 5401,
      "▁cit": 5402,
      "AD": 5403,
      "ares": 5404,
      "▁absol": 5405,
      "ਸ਼ਮ": 5406,
      "▁April": 5407,
      "▁ਧੋਖਾ": 5408,
      "▁ਦਿੰਦੀ": 5409,
      "▁ਸਾਂਝੇ": 5410,
      "▁elect": 5411,
      "▁impl": 5412,
      "▁wherein": 5413,
      "▁petitions": 5414,
      "▁trade": 5415,
      "▁asked": 5416,
      "▁hospital": 5417,
      "▁ਫਲ": 5418,
      "▁areas": 5419,
      "istry": 5420,
      "▁ਮਾਪਦੰਡ": 5421,
      "▁forward": 5422,
      "▁ਲਿਆਂ": 5423,
      "ਾਰਥਨਾ": 5424,
      "pir": 5425,
      "▁ਸਮੇਂ,": 5426,
      "ਗੁ": 5427,
      "▁ਮੰਤਰ": 5428,
      "▁ਕਹਿਣ": 5429,
      "▁ਦਰਅਸਲ": 5430,
      "▁ਆਰਬਿਟਰੇਸ਼ਨ": 5431,
      "▁ਨਿਗਰਾਨੀ": 5432,
      "ਵਿਧੀਆਂ": 5433,
      "▁ਪ੍ਰਾਰਥਨਾ": 5434,
      "▁gra": 5435,
      "▁ਜ਼ਾਹਰ": 5436,
      "▁ਗਤੀਵਿਧੀਆਂ": 5437,
      "ਿੱਤਰ": 5438,
      "▁ਸ਼ਹਿਰ": 5439,
      "▁Gr": 5440,
      "ਅੰਦਾ": 5441,
      "▁ਸੱ": 5442,
      "abad": 5443,
      "▁ਸਮਾਜਿਕ": 5444,
      "urned": 5445,
      "▁remo": 5446,
      "▁once": 5447,
      "▁ਤਰਕ": 5448,
      "▁ਨਤੀਜਾ": 5449,
      "▁interpret": 5450,
      "ੋਹ": 5451,
      "▁permission": 5452,
      "anation": 5453,
      "ਜੀਨੀਅਰ": 5454,
      "ਿਜ": 5455,
      "▁ਨਿਸ਼ਚਤ": 5456,
      "▁ਇਰਾਦਾ": 5457,
      "ਸ਼ਾਹ": 5458,
      "▁ਲੈਣ-ਦੇਣ": 5459,
      "▁relig": 5460,
      "▁submissions": 5461,
      "▁personal": 5462,
      "▁2,": 5463,
      "▁ਦੁਆਰਾ,": 5464,
      "▁furn": 5465,
      "▁success": 5466,
      "essions": 5467,
      "▁intern": 5468,
      "▁prosecut": 5469,
      "▁started": 5470,
      "▁Clause": 5471,
      "▁ਉਮੀਦਵਾਰਾਂ": 5472,
      "▁ਦੂਸਰੇ": 5473,
      "imate": 5474,
      "uction": 5475,
      "▁expect": 5476,
      "▁ਬਾਵਜੂਦ,": 5477,
      "▁ਪਸੰਦ": 5478,
      "ected": 5479,
      "▁ਸਿਖਲਾਈ": 5480,
      "▁ਅਗਸਤ": 5481,
      "▁ਸੂਟ": 5482,
      "▁approval": 5483,
      "ਕੀਨੀ": 5484,
      "▁argument": 5485,
      "▁ਸੋਚਿਆ": 5486,
      "ugust": 5487,
      ".ਐੱ": 5488,
      "▁meaning": 5489,
      "▁(ਸੀ)": 5490,
      "▁accused.\n": 5491,
      "ਰਾਸ਼ਟਰੀ": 5492,
      "▁ਅੰਤਰਿਮ": 5493,
      "▁seeking": 5494,
      "▁ਵਟਾਂਦਰੇ": 5495,
      "▁ਇੰਜੀਨੀਅਰ": 5496,
      "ricult": 5497,
      "ੱਈਆ": 5498,
      "▁Med": 5499,
      "▁it.\n": 5500,
      "uses": 5501,
      "▁ਦਿਲਚਸਪੀ": 5502,
      "▁no.1": 5503,
      "▁ਉਪਾਅ": 5504,
      "▁ਦਾਖਲੇ": 5505,
      "▁agg": 5506,
      "imes": 5507,
      "▁recovery": 5508,
      "▁ਲਗਾਏ": 5509,
      "▁ਨਿਸ਼ਾਨ": 5510,
      "ਮੇਲ": 5511,
      "▁ਪਾਉਣ": 5512,
      "ਸ਼ਰ": 5513,
      "▁2001": 5514,
      "▁ਪ੍ਰਾਈਵੇਟ": 5515,
      "ਚਨਾ": 5516,
      "-0": 5517,
      "▁interim": 5518,
      "retion": 5519,
      "ਕ੍ਰ": 5520,
      "▁ਬਾਕੀ": 5521,
      "▁fact,": 5522,
      "ION": 5523,
      "▁died": 5524,
      "▁ਟੈਸਟ": 5525,
      "reg": 5526,
      "▁ਭਰਤੀ": 5527,
      "▁ce": 5528,
      "hibit": 5529,
      "▁ਸਥਾਈ": 5530,
      "ਵਿੱਖ": 5531,
      "▁ਜਲਦੀ": 5532,
      "▁toget": 5533,
      "▁together": 5534,
      "▁same.\n": 5535,
      "▁ਸਾਰੀ": 5536,
      "\".\"\n": 5537,
      "▁ਯਕੀਨੀ": 5538,
      "▁ਪ੍ਰਸੰਗ": 5539,
      "▁building": 5540,
      "ਥਾਤ": 5541,
      "▁ਉਦਾਹਰਣ": 5542,
      "▁commit": 5543,
      "▁ਕਰਾਸ": 5544,
      "▁injury": 5545,
      "ala": 5546,
      "▁Sri": 5547,
      "▁ਅਨੁਕੂਲ": 5548,
      "ively": 5549,
      "▁rendered": 5550,
      "▁ਸਮਰੱਥਾ": 5551,
      "▁33": 5552,
      "▁ਅਕ": 5553,
      "▁ਉਸਾਰੀ": 5554,
      "▁langu": 5555,
      "▁ਭਵਿੱਖ": 5556,
      "▁ਜਾਣੇ": 5557,
      "▁ਬਿਜਲੀ": 5558,
      "▁role": 5559,
      "▁und": 5560,
      "▁ਜੁਰਮਾਨ": 5561,
      "▁ਮੰਦਰ": 5562,
      "▁society": 5563,
      "▁ਅਰਥਾਤ": 5564,
      "go": 5565,
      "▁trad": 5566,
      "ਮੈਨ": 5567,
      "▁amendment": 5568,
      "ruit": 5569,
      "▁ਹੁੰਦਾ.\n": 5570,
      "▁Additional": 5571,
      "'ble": 5572,
      "▁ਖਿੱ": 5573,
      "▁Prov": 5574,
      "▁ਸ਼ਕਤੀਆਂ": 5575,
      "▁cross-examin": 5576,
      "▁ਕੀਤਾ,": 5577,
      "oper": 5578,
      "▁Soc": 5579,
      "▁approach": 5580,
      "▁(a)": 5581,
      "▁Develop": 5582,
      "▁Govern": 5583,
      "▁ਹਦਾਇ": 5584,
      "▁ਐਡਵੋ": 5585,
      "▁disposed": 5586,
      "▁ਹੈ.\"\n": 5587,
      "isted": 5588,
      "▁ਚਲਾਇਆ": 5589,
      "▁continue": 5590,
      "ance.\n": 5591,
      "▁ਆਪਣੀਆਂ": 5592,
      ".1993": 5593,
      "▁ty": 5594,
      "vey": 5595,
      "▁1999": 5596,
      "▁Scheme": 5597,
      "▁Hon'ble": 5598,
      "▁lod": 5599,
      "▁Dece": 5600,
      "▁ਖਰਚਿਆਂ": 5601,
      "viron": 5602,
      "▁ਚੁੱਕੇ": 5603,
      "▁declaration": 5604,
      "▁ਹੈ?\n": 5605,
      "ਿਅਕ": 5606,
      "enced": 5607,
      "ਲੀਆਂ": 5608,
      "▁fut": 5609,
      "▁previous": 5610,
      "▁Def": 5611,
      "▁ਸੰਤੁਸ਼ਟ": 5612,
      "ਫਾ": 5613,
      "▁ਖੜ": 5614,
      "▁entered": 5615,
      "▁(ਏ)": 5616,
      "▁ਸਾਬ": 5617,
      "▁IN": 5618,
      "▁ਰਿਸ਼": 5619,
      "▁directions": 5620,
      "▁ਐਂਡ": 5621,
      "▁ਬ੍ਰ": 5622,
      "ਜਿਆਂ": 5623,
      "▁ਇਕੱਲੇ": 5624,
      "▁ਜਨਮ": 5625,
      "ਵਰਤ": 5626,
      "▁05": 5627,
      "▁45": 5628,
      "▁07": 5629,
      "▁ਮੰਨਣ": 5630,
      "▁ਗੈਰ-": 5631,
      "▁ਖੁਸ਼": 5632,
      "▁ਐਡਵੋਕੇਟ": 5633,
      "ਸ਼ਟੀਕਰਨ": 5634,
      "ਇਲ": 5635,
      "====": 5636,
      "▁absolute": 5637,
      "ਾਇਦ": 5638,
      "▁ought": 5639,
      "▁ਫਾਰਮ": 5640,
      "ership": 5641,
      "▁ਪੱਖਪਾਤ": 5642,
      "▁ਪ੍ਰਤੀਸ਼ਤ": 5643,
      "▁(ਬੀ": 5644,
      "ਮਾਰੀ": 5645,
      "▁ਅਮਰੀ": 5646,
      "▁ਸ਼ਾਸ": 5647,
      "▁appellate": 5648,
      "▁grow": 5649,
      "▁ਇੱ": 5650,
      "ters": 5651,
      "ron": 5652,
      "▁ਭਵਨ": 5653,
      "ਟਰਾਂ": 5654,
      "▁imm": 5655,
      "lying": 5656,
      "▁ਭਾਈ": 5657,
      "▁specifically": 5658,
      "amental": 5659,
      "▁aut": 5660,
      "ize": 5661,
      "▁ਵੀ,": 5662,
      "▁occur": 5663,
      "ance,": 5664,
      "▁pension": 5665,
      "▁withdra": 5666,
      "▁ਪੇਸ਼ਕਸ਼": 5667,
      "▁ਇਥੇ": 5668,
      ".)": 5669,
      "▁ਸਾਈ": 5670,
      "▁acquisition": 5671,
      "adu": 5672,
      "-3": 5673,
      "ੰਜਨ": 5674,
      "▁08": 5675,
      "▁book": 5676,
      "▁ded": 5677,
      "▁others": 5678,
      "▁ਕੋਰਸ": 5679,
      "▁hence": 5680,
      "▁So": 5681,
      "▁noticed": 5682,
      "▁ach": 5683,
      "▁ਫ਼ਰਮਾਨ": 5684,
      "▁ਮੁੱਦਾ": 5685,
      "▁consum": 5686,
      "▁Janu": 5687,
      "ology": 5688,
      "▁Comm": 5689,
      "▁ਪ੍ਰਭਾਵਸ਼ਾਲੀ": 5690,
      "▁gl": 5691,
      "▁ਸ਼ਾਇਦ": 5692,
      "▁susp": 5693,
      "▁bound": 5694,
      "▁fixed": 5695,
      "ane": 5696,
      "▁statements": 5697,
      "▁ਗਠਨ": 5698,
      "▁ਸਖਤ": 5699,
      "▁summ": 5700,
      "▁ਸਿੱਧੇ": 5701,
      "▁facil": 5702,
      "▁ਮੁਲਜ਼ਮਾਂ": 5703,
      "▁rejected": 5704,
      "▁04": 5705,
      "▁ਪ੍ਰਕਾਸ਼ਤ": 5706,
      "ware": 5707,
      "▁ਕਮਜ਼": 5708,
      "▁ਵਰਗ": 5709,
      "-5": 5710,
      "▁national": 5711,
      "ਿਲਾਫ਼": 5712,
      "▁ਸੱਤ": 5713,
      "▁ਖ਼ਿਲਾਫ਼": 5714,
      "▁ਜੁਲਾਈ": 5715,
      "▁challenged": 5716,
      "▁ਫੋਰ": 5717,
      "▁findings": 5718,
      "▁co-": 5719,
      "▁contrary": 5720,
      "▁framed": 5721,
      "▁bur": 5722,
      "▁ਆਫ": 5723,
      "▁ਸੁਨ": 5724,
      "▁consent": 5725,
      "▁judgments": 5726,
      "▁liability": 5727,
      "▁needs": 5728,
      "ੁਆ": 5729,
      "▁enfor": 5730,
      "-m": 5731,
      "▁sk": 5732,
      "▁ਕਿਸਮ": 5733,
      "tion": 5734,
      "▁ਯੂਨੀਅਨ": 5735,
      "▁ਤਬਾਦ": 5736,
      "▁ਮਈ": 5737,
      "▁ਖੁੱਲ": 5738,
      "▁deemed": 5739,
      "usal": 5740,
      "▁34": 5741,
      "▁expression": 5742,
      "▁ਕਿਰਾਏਦਾਰ": 5743,
      "ulted": 5744,
      "▁ਤਰਾਂ": 5745,
      "▁06": 5746,
      "▁becom": 5747,
      "▁polit": 5748,
      "▁ਵਾਧਾ": 5749,
      "▁neither": 5750,
      ".30": 5751,
      "▁ਦ੍ਰ": 5752,
      "side": 5753,
      "▁December": 5754,
      "▁[1": 5755,
      "▁hand,": 5756,
      "▁anal": 5757,
      "▁obtained": 5758,
      "ulations": 5759,
      "▁ਰੈਗੂ": 5760,
      "▁And": 5761,
      "ored": 5762,
      "▁August": 5763,
      "ਪਲ": 5764,
      "▁ਸਿੱਖੇ": 5765,
      "▁preferred": 5766,
      "▁custody": 5767,
      "ihar": 5768,
      "▁ਮੀਟਿੰਗ": 5769,
      "ਕਿਆਂ": 5770,
      "unt": 5771,
      "▁ਵਿਕਲਪ": 5772,
      "▁purposes": 5773,
      "▁ਨੇੜੇ": 5774,
      "ਕਰਮ": 5775,
      "▁ਜਾਪਦਾ": 5776,
      "▁face": 5777,
      "▁separate": 5778,
      "▁rent": 5779,
      "igation": 5780,
      "\",": 5781,
      "▁Report": 5782,
      "arant": 5783,
      "▁discretion": 5784,
      "▁express": 5785,
      "▁ਚਾਹੀਦੇ": 5786,
      "erve": 5787,
      "ਣੀਆਂ": 5788,
      "-in-": 5789,
      "▁years.\n": 5790,
      "▁’": 5791,
      "▁ਬਕਾਇਆ": 5792,
      "▁ਤਕਨੀਕੀ": 5793,
      ".2005": 5794,
      "irt": 5795,
      "▁selection": 5796,
      "▁allegations": 5797,
      "eptember": 5798,
      "▁ਦਰਮਿਆਨ": 5799,
      "▁decide": 5800,
      "▁unt": 5801,
      "▁circumstances,": 5802,
      "ਨੀਆ": 5803,
      "ਰਾਂ": 5804,
      "▁requirement": 5805,
      "▁adjudic": 5806,
      "/0": 5807,
      "▁First": 5808,
      "▁followed": 5809,
      "▁ਟ੍ਰਾਂਸ": 5810,
      "▁With": 5811,
      "▁Me": 5812,
      "▁ਪ੍ਰਾਜ": 5813,
      "▁grounds": 5814,
      "ੜ੍ਹ": 5815,
      "ਕੇਸ਼ਨ": 5816,
      "▁ਵਿਸ਼ਾ": 5817,
      "ann": 5818,
      "▁ਸਟਾ": 5819,
      "▁Mem": 5820,
      "▁acquired": 5821,
      "▁kind": 5822,
      "▁ਸਵੇਰੇ": 5823,
      "gth": 5824,
      "▁ਬਣਾਏ": 5825,
      "rieved": 5826,
      "▁ਸਕਦਾ।\n": 5827,
      "▁whose": 5828,
      "▁impos": 5829,
      "8.\n": 5830,
      "▁ਦੁਹਰਾ": 5831,
      "▁prevent": 5832,
      "▁permitted": 5833,
      "▁ਚਾਲ": 5834,
      "▁gone": 5835,
      "▁citiz": 5836,
      "ened": 5837,
      "▁(b)": 5838,
      "▁sw": 5839,
      "▁PR": 5840,
      "▁ਡਾਕਟਰੀ": 5841,
      "▁local": 5842,
      "▁ਪ੍ਰਭਾਵਿਤ": 5843,
      "▁ਦਿੱਤਾ.\n": 5844,
      "▁registration": 5845,
      "▁ਲੈਂ": 5846,
      "▁03": 5847,
      "▁revision": 5848,
      "▁ਭਾਵਨਾ": 5849,
      "▁ਉਤਸ਼ਾਹ": 5850,
      "ੰਦੀ": 5851,
      "▁ਉਦਯੋਗਿਕ": 5852,
      "ਐਚ": 5853,
      "▁carried": 5854,
      "▁ਸੰਭਾਲ": 5855,
      "▁valu": 5856,
      "▁elig": 5857,
      "▁ut": 5858,
      "▁might": 5859,
      "▁ਜਿਸਦੀ": 5860,
      "▁ਕੌ": 5861,
      "ਬਾੜੀ": 5862,
      "▁ਪ੍ਰਗਟ": 5863,
      "erg": 5864,
      "▁ਹੁੰਦੀਆਂ": 5865,
      "▁ਬਣਨ": 5866,
      "ਜ਼ੀਆਂ": 5867,
      "▁ਰਾਜਨੀ": 5868,
      "ਿਲਮ": 5869,
      "▁ਸਕਦੀ.\n": 5870,
      "▁ਸਾਬਕਾ": 5871,
      "▁food": 5872,
      "▁properties": 5873,
      "ਿੰਦਰ": 5874,
      "▁time.\n": 5875,
      "▁patient": 5876,
      "▁illegal": 5877,
      "or.\n": 5878,
      "▁v.": 5879,
      "▁University": 5880,
      "ਮੀਆਂ": 5881,
      "▁why": 5882,
      "ਿਕਸ": 5883,
      "▁ਟੈਂਡਰ": 5884,
      "▁old": 5885,
      "▁Nag": 5886,
      "▁ਬੋਲ": 5887,
      "▁ul": 5888,
      "▁ਮਹਾਰਾ": 5889,
      "ED": 5890,
      "ਾਰਿਆਂ": 5891,
      "▁plea": 5892,
      "▁proble": 5893,
      "aff": 5894,
      "▁officers": 5895,
      "earch": 5896,
      "▁existing": 5897,
      "▁ਮੁਹੱਈਆ": 5898,
      "ਚਾਰਜ": 5899,
      "▁–": 5900,
      "▁Pat": 5901,
      "▁para": 5902,
      "ਟੀਆਂ": 5903,
      "▁discussion": 5904,
      "istant": 5905,
      "▁THE": 5906,
      "▁shows": 5907,
      "▁ਹਾਂ,": 5908,
      "▁joint": 5909,
      ".ਪੀ": 5910,
      "▁prob": 5911,
      "ies,": 5912,
      "▁ਦੁਕਾਨ": 5913,
      "▁09": 5914,
      "▁ਇਤਿਹਾ": 5915,
      "▁reported": 5916,
      "▁consequ": 5917,
      "▁ਜਾਣਦਾ": 5918,
      "▁ਚੀਜ਼": 5919,
      "▁Ab": 5920,
      "▁contem": 5921,
      "▁ਸੁਲਝ": 5922,
      "▁dise": 5923,
      "▁ill": 5924,
      "▁enquiry": 5925,
      "▁addition": 5926,
      "▁activities": 5927,
      "▁Invest": 5928,
      "ਮਾਲ": 5929,
      "▁ਦਰਸਾਉਂਦੀ": 5930,
      "▁substantial": 5931,
      "▁September": 5932,
      "ਸ਼ੀਟ": 5933,
      "▁ਰੁਕਾ": 5934,
      "▁ਕੀਤੀ,": 5935,
      "▁ਪ੍ਰੇਰ": 5936,
      "essional": 5937,
      "▁namely,": 5938,
      "0)": 5939,
      "▁sect": 5940,
      "▁Bomb": 5941,
      "▁ਸਮੁੰ": 5942,
      "▁deposed": 5943,
      "▁ਠੇਕੇ": 5944,
      "▁fresh": 5945,
      "▁ਦ੍ਰਿਸ਼": 5946,
      "▁ਪਟੀਸ਼ਨਰਾਂ": 5947,
      "ਕ,": 5948,
      "▁ਉਠ": 5949,
      "▁appellant.\n": 5950,
      "ressed": 5951,
      "▁1996": 5952,
      "▁Thereafter,": 5953,
      ".ਟੀ": 5954,
      "ੰਦਗੀ": 5955,
      "▁ਖ਼ਾਸਕਰ": 5956,
      "ats": 5957,
      "pex": 5958,
      "ney": 5959,
      "ੋਜੀ": 5960,
      "▁mor": 5961,
      "▁future": 5962,
      "▁small": 5963,
      "abour": 5964,
      "▁dut": 5965,
      "▁gre": 5966,
      "▁Arbitr": 5967,
      "▁ਅਨੁਸ਼ਾਸ": 5968,
      "int": 5969,
      "ebru": 5970,
      "▁ਡੇ": 5971,
      "▁plaintiffs": 5972,
      "▁ਤੈ": 5973,
      "▁ਅੰਤਰਰਾਸ਼ਟਰੀ": 5974,
      "▁ਨੌਕਰੀ": 5975,
      "▁ਰਿਹਾਇ": 5976,
      "▁law,": 5977,
      "▁include": 5978,
      "▁ਮੁੱਦ": 5979,
      "▁able": 5980,
      "▁ਉਤਪਾਦਨ": 5981,
      "▁awarded": 5982,
      "▁ਤੇਲ": 5983,
      "▁urged": 5984,
      "▁categor": 5985,
      "ey": 5986,
      "▁fri": 5987,
      "▁ਵਿਸ਼ਲੇ": 5988,
      "▁Muk": 5989,
      "▁testim": 5990,
      "▁aver": 5991,
      "▁Tax": 5992,
      "rimin": 5993,
      "▁ਹਾਜ਼ਰੀ": 5994,
      "▁ਮੁੱਦਿਆਂ": 5995,
      "▁ਸਿੱਟਾ": 5996,
      "▁accident": 5997,
      "ribution": 5998,
      "▁distin": 5999,
      "▁ਤੋਂ,": 6000,
      "▁fundamental": 6001,
      "▁Hence,": 6002,
      "▁1995": 6003,
      "▁ਸਾਹਮਣਾ": 6004,
      "ia,": 6005,
      "▁Judges": 6006,
      "▁dismiss": 6007,
      "come": 6008,
      "▁ਔ": 6009,
      "▁order.\n": 6010,
      "▁parent": 6011,
      "▁liber": 6012,
      "▁ਪਹਿਲਾ": 6013,
      "▁examine": 6014,
      "ਵੇਕ": 6015,
      "atic": 6016,
      "anced": 6017,
      "ੂਬਰ": 6018,
      "▁ਅਤੇ,": 6019,
      "▁recovered": 6020,
      "▁whom": 6021,
      "ases": 6022,
      "▁ਡਿਪ": 6023,
      "ਸ਼ਿਤ": 6024,
      "ions": 6025,
      "ਘਾ": 6026,
      "▁ਇਕਰਾਰਨਾਮਾ": 6027,
      "▁ਦਾਖਲਾ": 6028,
      "ਏਸ਼ਨ": 6029,
      "▁ਪੇ": 6030,
      "▁ਵਿਚਲੇ": 6031,
      "ober": 6032,
      "▁imprisonment": 6033,
      "ਵਧਾਨ": 6034,
      "▁ਰੁਜ਼ਗਾਰ": 6035,
      "▁protection": 6036,
      "ਰੀਬ": 6037,
      "▁Lim": 6038,
      "▁murder": 6039,
      "IS": 6040,
      "▁ਇਤਿਹਾਸ": 6041,
      "A.": 6042,
      "-200": 6043,
      "▁ਥਾਣੇ": 6044,
      "enc": 6045,
      "▁occup": 6046,
      "▁ਅਸ਼": 6047,
      "ross": 6048,
      "▁ਜਾਣਿਆ": 6049,
      "▁minor": 6050,
      "▁proposed": 6051,
      "▁difficult": 6052,
      "outh": 6053,
      "▁category": 6054,
      "▁coming": 6055,
      "▁resolution": 6056,
      "▁remed": 6057,
      "▁ਵੇਖਣ": 6058,
      "▁ਪਹੁੰਚਣ": 6059,
      "▁etc.\n": 6060,
      "▁Rules,": 6061,
      "ali": 6062,
      "▁ਜੂਨ": 6063,
      "ਸਤੂ": 6064,
      "▁ਨਾਮਜ਼ਦ": 6065,
      "ਮਿਤ": 6066,
      "▁ਕੰਮਾਂ": 6067,
      "▁phys": 6068,
      "IL": 6069,
      "ated.\n": 6070,
      "▁ਚੀਫ਼": 6071,
      "▁Bombay": 6072,
      "▁Febru": 6073,
      "▁adopted": 6074,
      "▁1st": 6075,
      "▁ਸਾਮ": 6076,
      "▁language": 6077,
      "▁ਬਹ": 6078,
      "▁pop": 6079,
      "▁order,": 6080,
      "▁passing": 6081,
      "▁ਬੇਨਤੀਆਂ": 6082,
      "▁sell": 6083,
      "▁ਹੱਲ": 6084,
      "ਕਤੂਬਰ": 6085,
      "▁ਕਰਾਉਣ": 6086,
      "ਸ਼ਨੀ": 6087,
      "▁ਖਿੱਚ": 6088,
      "▁fra": 6089,
      "▁ਕਟੌਤੀ": 6090,
      "ta": 6091,
      "▁ਸੰਬੰਧਤ": 6092,
      "ਧੜੀ": 6093,
      "▁gave": 6094,
      "▁ਲਿਆਉਣ": 6095,
      "ਹਨ": 6096,
      "ੁਕਵੀਂ": 6097,
      "▁crit": 6098,
      "ਬਾਦ": 6099,
      "ਦਾਸ": 6100,
      "▁ਸੀ\n": 6101,
      "▁ਮਾਰਕੀਟ": 6102,
      "▁ਅਕਤੂਬਰ": 6103,
      "▁ਹੋਈਆਂ": 6104,
      "▁ਤਾਕਤ": 6105,
      "iso": 6106,
      "▁ਅਸਮਰ": 6107,
      "ched": 6108,
      "▁Singh,": 6109,
      "▁ਮਜਬ": 6110,
      "ਭਾਈ": 6111,
      "▁payable": 6112,
      "▁ਵੱਖਰੀ": 6113,
      "▁transaction": 6114,
      "▁Whether": 6115,
      "▁satisfied": 6116,
      "▁ਖੇਤੀਬਾੜੀ": 6117,
      "equ": 6118,
      "▁ਡੈ": 6119,
      "▁ਇਕੱਠੇ": 6120,
      "aper": 6121,
      "▁program": 6122,
      "▁treatment": 6123,
      "▁ਵਿਦਿਆਰਥੀਆਂ": 6124,
      "▁vol": 6125,
      "▁agreed": 6126,
      "▁ਆਉਂਦੀ": 6127,
      "▁ਲੈਣਾ": 6128,
      "▁mort": 6129,
      "▁enact": 6130,
      "▁ਹਿੱਤਾਂ": 6131,
      "accused": 6132,
      "▁temple": 6133,
      "opp": 6134,
      "▁vot": 6135,
      "A,": 6136,
      "▁reliance": 6137,
      "▁petitioner.\n": 6138,
      "▁feel": 6139,
      "▁ਧੋਖਾਧੜੀ": 6140,
      "▁sl": 6141,
      "▁ਨਿਪਟਾਰੇ": 6142,
      "▁reached": 6143,
      "▁ਲੰਬੇ": 6144,
      "▁Criminal": 6145,
      "▁education": 6146,
      "▁immediately": 6147,
      "ead": 6148,
      "itation": 6149,
      "ਝਲ": 6150,
      "▁ਅਕਾ": 6151,
      "duc": 6152,
      "▁legislature": 6153,
      "▁ਸ਼ਾ": 6154,
      "▁ਮਜ਼": 6155,
      "▁Where": 6156,
      "▁foreign": 6157,
      "ctober": 6158,
      "▁ਚੇ": 6159,
      "ਚਾਲ": 6160,
      "▁Rs.1": 6161,
      "▁ਚੇਅਰ": 6162,
      "▁ਪੇਸ਼ੇ": 6163,
      "▁ਆਖਰੀ": 6164,
      "ਅੱਤ": 6165,
      "▁ਵਿਸ਼ੇ": 6166,
      "],": 6167,
      "itive": 6168,
      "▁ਵੇਚਣ": 6169,
      "▁start": 6170,
      "▁anything": 6171,
      "ਟਨ": 6172,
      "▁ਜੈ": 6173,
      "▁02": 6174,
      "osite": 6175,
      "▁doing": 6176,
      "▁Regulation": 6177,
      "▁ਸਰੀਰਕ": 6178,
      "icted": 6179,
      "▁premises": 6180,
      "▁ਪਾਲਣ": 6181,
      "▁ਬਗ": 6182,
      "▁ਚਾਰਜਸ਼ੀਟ": 6183,
      "ਧਤਾ": 6184,
      "ੂਨੀ": 6185,
      "▁deposit": 6186,
      "ਬੂਤ": 6187,
      "▁counter": 6188,
      "▁capac": 6189,
      "▁stip": 6190,
      "▁Pra": 6191,
      "▁ਅਨੁਸੂਚਿਤ": 6192,
      "abil": 6193,
      "▁intro": 6194,
      "▁ਗੈਰਕਾਨੂੰਨੀ": 6195,
      "▁lakh": 6196,
      "ਤਾਬ": 6197,
      "▁charact": 6198,
      "▁associ": 6199,
      "urrent": 6200,
      "▁practice": 6201,
      "▁ਵਿਸ਼ਲੇਸ਼ਣ": 6202,
      "▁P.S.": 6203,
      "▁economic": 6204,
      "▁mo": 6205,
      "੍ਰੇਸ਼ਨ": 6206,
      "fully": 6207,
      "▁ਸ਼ੰ": 6208,
      "▁ਮੰਤਰਾਲੇ": 6209,
      ".2002": 6210,
      "inding": 6211,
      "▁ਜ਼ਮੀਨਾਂ": 6212,
      "▁ਦੇਵੇ": 6213,
      "▁ਇਕਸਾਰ": 6214,
      "▁ਲਗਾਈ": 6215,
      "ordin": 6216,
      "▁ਹਫ਼": 6217,
      "▁outside": 6218,
      "▁ਨੁਮਾਇੰਦਗੀ": 6219,
      "▁hist": 6220,
      "▁cult": 6221,
      "▁ਇੰਟਰ": 6222,
      "▁ਖੋਲ": 6223,
      "▁ਨਿਭਾ": 6224,
      "▁adj": 6225,
      "▁permit": 6226,
      "▁questions": 6227,
      "isation": 6228,
      "▁ਮੁਅੱਤ": 6229,
      "▁expressed": 6230,
      "▁ਸਖ": 6231,
      "ਸਨ": 6232,
      ".R": 6233,
      "▁ਗੁੰਝਲ": 6234,
      "▁details": 6235,
      "▁candidate": 6236,
      "▁ਦਿੱਤੀ।\n": 6237,
      "tle": 6238,
      "iter": 6239,
      "▁stren": 6240,
      ".2004": 6241,
      "appellant": 6242,
      "▁claims": 6243,
      "▁ਨਜਿੱਠਣ": 6244,
      "▁ਗ਼ਲਤ": 6245,
      "▁ਸਰੋਤ": 6246,
      "▁ਮਾਣ": 6247,
      "▁department": 6248,
      "atch": 6249,
      "▁cal": 6250,
      "ਾਂਟ": 6251,
      "ੰਪ": 6252,
      "▁better": 6253,
      "ੋਕੜ": 6254,
      "▁Assistant": 6255,
      "▁ਸਾਲਸੀ": 6256,
      "▁reve": 6257,
      "hod": 6258,
      "10": 6259,
      "▁signific": 6260,
      "▁re-": 6261,
      "manent": 6262,
      "▁punishment": 6263,
      "▁ਪਿਛੋਕੜ": 6264,
      "▁ਵਿਚਾਰਨ": 6265,
      "▁inn": 6266,
      "▁ਛੋਟੇ": 6267,
      "▁(ਬੀ)": 6268,
      "▁shares": 6269,
      "▁ਖਾਤੇ": 6270,
      "▁design": 6271,
      "▁consist": 6272,
      "▁ਕੇ,": 6273,
      "▁room": 6274,
      "▁debt": 6275,
      "ਭਾਲ": 6276,
      "ery": 6277,
      "▁ਰੇਲਵੇ": 6278,
      "▁ਪੱਛ": 6279,
      "uting": 6280,
      "▁ਸਮਝਿਆ": 6281,
      "▁ਇੱਥੋਂ": 6282,
      "▁hard": 6283,
      "▁ਸੰਪਤੀ": 6284,
      "▁assist": 6285,
      "CC": 6286,
      "▁sold": 6287,
      "▁single": 6288,
      "ਾਂਡ": 6289,
      "most": 6290,
      "▁di": 6291,
      "▁alone": 6292,
      ".2003": 6293,
      "▁ਜਾਵੇ.\n": 6294,
      "ਯੋ": 6295,
      "▁Z": 6296,
      "ਸਿਕ": 6297,
      "vember": 6298,
      "▁ਗਈ,": 6299,
      "▁Se": 6300,
      "▁Sessions": 6301,
      "▁ਡਿਸ": 6302,
      "▁ਗੁਣਾਂ": 6303,
      "▁ਕੇਵਲ": 6304,
      "▁ਕਤਲ": 6305,
      "ਲਾਮੀ": 6306,
      "▁ਰੈਗੂਲੇ": 6307,
      "▁(ਜ": 6308,
      "▁students": 6309,
      "▁ਟਰੱਸਟ": 6310,
      "▁Societ": 6311,
      "cle": 6312,
      "ਫਟ": 6313,
      "▁Service": 6314,
      "▁lar": 6315,
      "▁cast": 6316,
      "▁status": 6317,
      "▁ਆਏ": 6318,
      "▁Bhav": 6319,
      "▁ਰਾਖ": 6320,
      "▁Ann": 6321,
      "▁ਦਫ਼": 6322,
      "▁Engine": 6323,
      "-ਪੱਤਰ": 6324,
      "▁ਵਧੀਕ": 6325,
      "▁arr": 6326,
      "▁ਨਗਰ": 6327,
      "▁sole": 6328,
      "▁ਸਧਾਰਣ": 6329,
      "▁connection": 6330,
      "▁Sim": 6331,
      "▁subs": 6332,
      "▁respons": 6333,
      "▁Sm": 6334,
      "▁love": 6335,
      "▁ਕਲਪ": 6336,
      "lu": 6337,
      "▁prosecutrix": 6338,
      "▁proviso": 6339,
      "though": 6340,
      "work": 6341,
      "▁Cons": 6342,
      "▁ਆਈਪੀਸੀ": 6343,
      "tt": 6344,
      "▁limited": 6345,
      "▁dismissed.\n": 6346,
      "▁security": 6347,
      "▁turn": 6348,
      "▁Ministry": 6349,
      "▁ਪੀਐਸ": 6350,
      "96": 6351,
      "▁ਵਿਵੇਕ": 6352,
      "▁Educ": 6353,
      "▁ਮੁਦਈਆਂ": 6354,
      "▁(ii)": 6355,
      "▁view,": 6356,
      "▁ਮਕਾਨ": 6357,
      "▁”": 6358,
      "▁ਦੇਖਭਾਲ": 6359,
      ".S.": 6360,
      "▁yet": 6361,
      "▁Development": 6362,
      "ਮੀਟਰ": 6363,
      "▁pub": 6364,
      "▁‘ਤੇ": 6365,
      "▁ਬੰਬੇ": 6366,
      "ift": 6367,
      "▁ਸਟੇਟ": 6368,
      "ੱਸਿਆ": 6369,
      "pite": 6370,
      "▁cover": 6371,
      "▁providing": 6372,
      "▁saw": 6373,
      "▁-3": 6374,
      "12": 6375,
      "▁district": 6376,
      "▁Fin": 6377,
      "▁clar": 6378,
      "▁credit": 6379,
      "▁dev": 6380,
      "▁ਹੁ": 6381,
      "▁ਤੈਅ": 6382,
      "ੁਕਵਾਂ": 6383,
      "▁cho": 6384,
      "▁ਹਾਲਾਤ": 6385,
      "▁eye": 6386,
      "(1)": 6387,
      "ਚੇ": 6388,
      "▁became": 6389,
      "▁37": 6390,
      "anchay": 6391,
      "▁benefits": 6392,
      "ਹਿਣ": 6393,
      "ਕਰੇ": 6394,
      "▁ਅਪੀਲਾਂ": 6395,
      "▁ਕਰਵਾਉਣ": 6396,
      "▁doct": 6397,
      "▁deceased.\n": 6398,
      "▁sex": 6399,
      "ੁਕਵੇਂ": 6400,
      "▁ਰੀ": 6401,
      "▁Pun": 6402,
      "▁fine": 6403,
      "i.\n": 6404,
      "ਗਲ": 6405,
      "▁ਜਿਸਨੇ": 6406,
      "UR": 6407,
      "orts": 6408,
      "cent": 6409,
      "▁ਜ਼ਿੰਦਗੀ": 6410,
      "▁violation": 6411,
      "▁ਬਿੱਲ": 6412,
      "ਰਨ": 6413,
      "▁Ltd.": 6414,
      "▁production": 6415,
      "▁commercial": 6416,
      "▁ਨਿਵਾਸੀ": 6417,
      "▁ਬਿਹ": 6418,
      "▁penalty": 6419,
      "ਖੰਡ": 6420,
      "ਸਪੈਕਟਰ": 6421,
      "▁..": 6422,
      ".197": 6423,
      "▁ਵਸਤੂ": 6424,
      "ਿਹਾਰ": 6425,
      "▁sour": 6426,
      "▁attack": 6427,
      "▁posts": 6428,
      "▁etc.": 6429,
      "▁His": 6430,
      "ਰਤਾਂ": 6431,
      "▁advert": 6432,
      "▁ਪੇਟ": 6433,
      "igating": 6434,
      "ਜਾਣ": 6435,
      "▁eff": 6436,
      "▁ਤੁਲ": 6437,
      "▁quant": 6438,
      "▁ਇੱਛਾ": 6439,
      "ਤਾਰ": 6440,
      "▁1993": 6441,
      "▁legislative": 6442,
      "▁Lal": 6443,
      "▁October": 6444,
      "▁capital": 6445,
      "▁ਸੁਣਿਆ": 6446,
      "▁related": 6447,
      "▁ਖਰਚੇ": 6448,
      "irl": 6449,
      "▁ਸੁਣਾਈ": 6450,
      "▁ਪ੍ਰੋਜ": 6451,
      "rut": 6452,
      "▁ਸਿੱਖਿਅਤ": 6453,
      "▁ਗੁੰਝਲਦਾਰ": 6454,
      "▁ਸਹੂਲਤ": 6455,
      "▁ਆਵਾ": 6456,
      "▁II": 6457,
      "▁discipl": 6458,
      "▁injured": 6459,
      "▁ਯੋਗਦਾਨ": 6460,
      "wal": 6461,
      "▁cur": 6462,
      "ਲਜ਼ਾਮ": 6463,
      "▁few": 6464,
      "▁(c": 6465,
      "▁November": 6466,
      "▁ਪਰਿਵਾਰਕ": 6467,
      "ਸ਼ਕ": 6468,
      "▁ਗਿਰ": 6469,
      "▁Sur": 6470,
      "▁performance": 6471,
      "-ਜਾਂਚ": 6472,
      "▁36": 6473,
      "▁institutions": 6474,
      "ern": 6475,
      "▁ਐਸੋਸੀ": 6476,
      "▁follows": 6477,
      "ogniz": 6478,
      "ional": 6479,
      "▁ਜ਼ਿਲ੍ਹਾ-": 6480,
      "amb": 6481,
      "ਮਿਕ": 6482,
      "▁ਇਲਜ਼ਾਮ": 6483,
      "▁management": 6484,
      "▁Chair": 6485,
      "▁ਸੈਂ": 6486,
      "atives": 6487,
      "▁identified": 6488,
      "de": 6489,
      "▁ਵਿਗਿਆਨ": 6490,
      "▁companies": 6491,
      "▁ਸ੍ਰੀਮਤੀ": 6492,
      "▁guarant": 6493,
      "▁ਸਕਿਆ": 6494,
      "▁applications": 6495,
      "▁ਸ਼ਾਂ": 6496,
      "▁ਮੈਨੇ": 6497,
      "▁interpretation": 6498,
      "▁liberty": 6499,
      "ੌਲ": 6500,
      "adem": 6501,
      "unction": 6502,
      "▁him,": 6503,
      "ੱਡੀ": 6504,
      "▁ਕਾਮ": 6505,
      "abor": 6506,
      "▁guilty": 6507,
      "▁ਮਜਬੂਰ": 6508,
      "▁(i)": 6509,
      "▁ਸਮੁ": 6510,
      "phas": 6511,
      "▁court.\n": 6512,
      "▁ਬਣਦਾ": 6513,
      "vention": 6514,
      "▁ਸੁਪਰ": 6515,
      "ਸ਼ਤਿਹਾਰ": 6516,
      "▁relationship": 6517,
      "▁entertain": 6518,
      "▁ਅੰਦਰੂਨੀ": 6519,
      "ੁਟ": 6520,
      "▁ਅਗਵਾਈ": 6521,
      "▁least": 6522,
      "▁ਟੈਕ": 6523,
      "▁observations": 6524,
      "ਾਂਚੇ": 6525,
      "7.\n": 6526,
      "▁ਅਨੁਪਾਤ": 6527,
      "▁steps": 6528,
      "ਸ਼ਿਪ": 6529,
      "▁ਵਿਵਸਥਾਵਾਂ": 6530,
      "▁(E": 6531,
      "▁ਆਰਟੀ": 6532,
      "▁tenant": 6533,
      "▁ਇਸ਼ਤਿਹਾਰ": 6534,
      "urer": 6535,
      "idel": 6536,
      "ma": 6537,
      "ics": 6538,
      "▁ਜਾਨ": 6539,
      "ਤਿਆਂ": 6540,
      "▁Q": 6541,
      "▁led": 6542,
      "▁evidence.\n": 6543,
      "now": 6544,
      "ਸ਼ਰਤੇ": 6545,
      "ifying": 6546,
      "▁materials": 6547,
      "▁dealing": 6548,
      "▁existence": 6549,
      "ush": 6550,
      "▁From": 6551,
      "ਜਾਇ": 6552,
      "men": 6553,
      "▁ਟਾਈ": 6554,
      "▁ਪੂਰਵ": 6555,
      "15": 6556,
      "▁ਟਾ": 6557,
      "1.\n": 6558,
      "▁ਸਮੱਸਿਆ": 6559,
      "▁Medical": 6560,
      "▁publ": 6561,
      "ਸਾਦ": 6562,
      "▁No.4": 6563,
      "▁operation": 6564,
      "▁imposed": 6565,
      "▁conclud": 6566,
      "▁ਨਜ਼ਰੀ": 6567,
      "under": 6568,
      "▁ਵੱਖੋ": 6569,
      "▁drawn": 6570,
      "▁ਬਗੈਰ": 6571,
      "▁ਰਜਿਸਟਰੀ": 6572,
      "▁ਦਫ਼ਤਰ": 6573,
      "▁ਕੋਡ": 6574,
      "▁ਪ੍ਰੋਗਰਾਮ": 6575,
      "wh": 6576,
      "▁)": 6577,
      "▁ਅਕਸਰ": 6578,
      "▁X": 6579,
      "▁Apex": 6580,
      "▁scope": 6581,
      "95": 6582,
      "▁ਖੋਲ੍ਹ": 6583,
      "jee": 6584,
      "ਿੰਟ": 6585,
      "ਬਾਤ": 6586,
      "▁ਬੈਠ": 6587,
      "atures": 6588,
      "▁nomin": 6589,
      "ਤੇਮਾਲ": 6590,
      "riev": 6591,
      "▁attempt": 6592,
      "▁ਮਾਈਨ": 6593,
      "▁opinion,": 6594,
      "▁becomes": 6595,
      "▁ਅਰਜ਼ੀਆਂ": 6596,
      "ticle": 6597,
      "▁ਪਰਿਭਾਸ਼ਾ": 6598,
      "________": 6599,
      "▁created": 6600,
      "hand": 6601,
      "exure": 6602,
      "▁ਦਾਇ": 6603,
      "▁situated": 6604,
      "reedom": 6605,
      "ਪਣ": 6606,
      "▁unf": 6607,
      "rol": 6608,
      "▁ਪਈ": 6609,
      "▁ਇਸਤੇਮਾਲ": 6610,
      "▁shop": 6611,
      "▁emp": 6612,
      "▁getting": 6613,
      "▁protect": 6614,
      "ਦਰਭ": 6615,
      "▁conspir": 6616,
      "▁Appellate": 6617,
      "▁Defendant": 6618,
      "▁sheet": 6619,
      "▁inquiry": 6620,
      "▁ਕਲਪਨਾ": 6621,
      "▁initial": 6622,
      "ators": 6623,
      "▁ਗੱਲਬਾਤ": 6624,
      "▁Accordingly,": 6625,
      "▁night": 6626,
      "▁fit": 6627,
      "▁ਲੋੜੀਂਦੀ": 6628,
      "elf": 6629,
      "▁ਸੱਚਮੁ": 6630,
      "▁ਮੇਰਾ": 6631,
      "▁Secretary": 6632,
      "io": 6633,
      "▁mil": 6634,
      "▁ਉਤਸ਼ਾਹਤ": 6635,
      "rish": 6636,
      "▁ਨਕ": 6637,
      "▁Judicial": 6638,
      "▁ਡਰ": 6639,
      "▁ਸਮੁੱਚ": 6640,
      "▁lands": 6641,
      "▁ਵਿਵਹਾਰ": 6642,
      "▁ਜ਼ੁਰ": 6643,
      "▁arbitrator": 6644,
      "ੰਨ": 6645,
      "▁ਖਪਤ": 6646,
      "▁Cl": 6647,
      "▁ਮਜ਼ਬੂਤ": 6648,
      "▁ਮਲ": 6649,
      "▁Mahar": 6650,
      "▁(ਡੀ": 6651,
      "▁ਪ੍ਰਕਾਰ": 6652,
      "▁ਹਨ.": 6653,
      "▁ਐੱ": 6654,
      "▁Bar": 6655,
      "▁respondent-": 6656,
      "rop": 6657,
      "▁ਇਸਨੂੰ": 6658,
      "▁quas": 6659,
      "gin": 6660,
      "▁Sha": 6661,
      "▁ਬਸ਼ਰਤੇ": 6662,
      "▁Ra": 6663,
      "▁judge": 6664,
      "▁ਜੰਗ": 6665,
      "▁appellant,": 6666,
      "▁continued": 6667,
      "▁exercised": 6668,
      "ਾਤਮਕ": 6669,
      "▁One": 6670,
      "▁Second": 6671,
      "▁ਪੱਕ": 6672,
      "lim": 6673,
      "9.\n": 6674,
      "▁community": 6675,
      "▁concept": 6676,
      "▁comes": 6677,
      "▁ਚਿ": 6678,
      "▁ਆਉਂਦਾ": 6679,
      "▁ਰਾਜਪਾਲ": 6680,
      "an.\n": 6681,
      "▁arise": 6682,
      "▁corpor": 6683,
      "▁-5": 6684,
      "▁ਨਵਾਂ": 6685,
      "▁records": 6686,
      "▁ਤਤਕ": 6687,
      "▁ਰਿਕ": 6688,
      "▁method": 6689,
      "ਰੀਆ": 6690,
      "▁Government.\n": 6691,
      "▁adverse": 6692,
      "▁ਪੀ.ਡਬਲਯੂ": 6693,
      "▁permanent": 6694,
      "▁Collect": 6695,
      "▁accordingly": 6696,
      "ਜਾਈ": 6697,
      "ont": 6698,
      "▁ਸ਼ੁੱਧ": 6699,
      "using": 6700,
      "▁setting": 6701,
      "pati": 6702,
      "▁redu": 6703,
      "ੜਿਆ": 6704,
      "▁(supra),": 6705,
      "▁Agree": 6706,
      "▁ਅਸਥ": 6707,
      "▁environ": 6708,
      "▁covered": 6709,
      "▁completed": 6710,
      "▁ਰਿਟਾਇਰ": 6711,
      "▁ਵਿਸ਼ਾਲ": 6712,
      "jar": 6713,
      "ems": 6714,
      "rutin": 6715,
      "-t": 6716,
      "▁ਕੱਟ": 6717,
      "▁ਗ੍ਰਾ": 6718,
      "ਬੀਆਈ": 6719,
      "▁ਪ੍ਰਕਿਰਤੀ": 6720,
      "ਡੀਓ": 6721,
      "▁ਮਦਦ": 6722,
      "▁ਚੈੱਕ": 6723,
      "▁ਸੰਘ": 6724,
      "▁(199": 6725,
      "▁What": 6726,
      "▁Sub-": 6727,
      "taining": 6728,
      "ਿਸ਼ਚਿਤ": 6729,
      "▁ਦੇਵੀ": 6730,
      "▁ਦਾਅਵੇਦਾਰ": 6731,
      "▁Judge,": 6732,
      "stitute": 6733,
      "▁remain": 6734,
      "▁petitioner,": 6735,
      "▁During": 6736,
      "▁ਸਥਾਪਿਤ": 6737,
      "unicip": 6738,
      "▁!": 6739,
      "▁apart": 6740,
      "eak": 6741,
      "ੇਟਰ": 6742,
      "▁ਘੋਸ਼ਿਤ": 6743,
      "▁ਭਰੋਸੇਯੋਗ": 6744,
      "▁ਨਿਯਮਿਤ": 6745,
      "▁”\n": 6746,
      "▁ਸਕੱਤਰ": 6747,
      "▁ਦੂਰੀ": 6748,
      "▁Is": 6749,
      "▁ਰੰਗ": 6750,
      "heduled": 6751,
      "▁ਮਿਲਦਾ": 6752,
      "ਚਾ": 6753,
      "ਪਨ": 6754,
      "ਮੀਰ": 6755,
      "▁cancell": 6756,
      "▁ਮਾਹਰ": 6757,
      "▁validity": 6758,
      "▁har": 6759,
      "▁fraud": 6760,
      "▁ਮੂਲ": 6761,
      "ਸ਼ੋਧ": 6762,
      "▁so,": 6763,
      "2.\n": 6764,
      "▁tried": 6765,
      "ਜਨਕ": 6766,
      "EC": 6767,
      "ਕਿਸ": 6768,
      "▁ਸੜਕ": 6769,
      "▁ਸੰਚਾਲ": 6770,
      "▁Exec": 6771,
      "iting": 6772,
      "▁attention": 6773,
      "▁ਥੋ": 6774,
      "੍ਰਿਸ਼ਨ": 6775,
      "▁parties.\n": 6776,
      "ਬਾਨੀ": 6777,
      "▁ਆਸ": 6778,
      "▁Registr": 6779,
      "▁ਨਿਗਮ": 6780,
      "▁ਅਗਲੀ": 6781,
      "▁executive": 6782,
      "ੱਬ": 6783,
      "▁whereas": 6784,
      "▁ਮੇਰੀ": 6785,
      "▁ਮਨੋਰੰਜਨ": 6786,
      "ਹਾਂ": 6787,
      "▁ਸੰਦਰਭ": 6788,
      "▁Indust": 6789,
      "▁ਸਕੇ.\n": 6790,
      "▁ਕਦਰ": 6791,
      "▁quot": 6792,
      "ਧਨ": 6793,
      "▁bo": 6794,
      "▁until": 6795,
      "cement": 6796,
      "▁ਏਕ": 6797,
      "▁ਹੋਵੇਗੀ.\n": 6798,
      "hem": 6799,
      "▁ਮਾਸ": 6800,
      "▁ਵਿਦਿਅਕ": 6801,
      "▁ਪੌ": 6802,
      "▁deli": 6803,
      "▁ਦੇਸ਼ਾਂ": 6804,
      "▁ਸਕਦਾ,": 6805,
      "▁enj": 6806,
      "▁close": 6807,
      "▁balance": 6808,
      "▁ਚੰਗਾ": 6809,
      "▁plot": 6810,
      "▁justified": 6811,
      "▁dr": 6812,
      "▁ਮੁਅੱਤਲ": 6813,
      "▁ਤਾਲ": 6814,
      "▁recruit": 6815,
      "str": 6816,
      "▁ਮੁਲਾ": 6817,
      "▁Hospital": 6818,
      "▁ਨਜ਼ਰਬੰਦੀ": 6819,
      "▁ren": 6820,
      "▁Rs.2": 6821,
      "▁cogniz": 6822,
      "▁ਹਨ:": 6823,
      "▁ਜੇਲ": 6824,
      "▁detention": 6825,
      "atak": 6826,
      "asad": 6827,
      "▁ਕਰਵਾਈ": 6828,
      "ii)": 6829,
      "▁intended": 6830,
      "▁ਲੜਕੀ": 6831,
      "aur": 6832,
      "▁teacher": 6833,
      "▁ਪ੍ਰੇਸ਼ਾਨ": 6834,
      "ਾਂਗ": 6835,
      "▁govern": 6836,
      "amil": 6837,
      "ਸ਼ਾਂ": 6838,
      "aging": 6839,
      "▁disclos": 6840,
      "lusive": 6841,
      "▁political": 6842,
      "▁implic": 6843,
      "▁dealt": 6844,
      "▁requires": 6845,
      "▁transferred": 6846,
      "/o": 6847,
      "25": 6848,
      "ਬਾਲੀਆ": 6849,
      "▁ਸਹੂਲਤਾਂ": 6850,
      "▁ਦੁਖੀ": 6851,
      "▁80": 6852,
      "▁ਆਉਂਦੇ": 6853,
      "▁prejud": 6854,
      "ills": 6855,
      "----------------": 6856,
      "▁determined": 6857,
      "▁ਜਿਹੇ": 6858,
      "▁ਗ੍ਰਿਫਤਾਰ": 6859,
      "40": 6860,
      "▁Though": 6861,
      "▁Applic": 6862,
      "▁purchase": 6863,
      "▁ਇਸ਼": 6864,
      "6.\n": 6865,
      "▁ਦੱਸਣ": 6866,
      "▁70": 6867,
      "▁ਲਿਖਿਆ": 6868,
      "ਾਉਣ": 6869,
      "13": 6870,
      "▁approved": 6871,
      "▁ਜਿਹਾ": 6872,
      "▁ਅਸਪ": 6873,
      "▁ਰੁਕਾਵਟ": 6874,
      "▁proof": 6875,
      "▁ਇਕਬਾਲੀਆ": 6876,
      "▁Le": 6877,
      "▁ਨਵੀ": 6878,
      "ੱਖਣ": 6879,
      "▁District-": 6880,
      "▁Karn": 6881,
      "ੰਬ": 6882,
      "▁ਗਏ।\n": 6883,
      "▁minimum": 6884,
      "▁ਜਵਾਬਦਾਤਾ": 6885,
      "ਵਕ": 6886,
      "▁particularly": 6887,
      "▁Deputy": 6888,
      "4.\n": 6889,
      "▁ਅਵਾਰਡ": 6890,
      "▁ਸਾਡਾ": 6891,
      "▁join": 6892,
      "▁extended": 6893,
      "▁agricult": 6894,
      "▁threat": 6895,
      "ently": 6896,
      "▁ਐਪ": 6897,
      "▁ਵਿਚਾਰ-ਵ": 6898,
      "▁ਰਜਿਸਟਰਾਰ": 6899,
      "▁(5)": 6900,
      "ਰੀਜ਼": 6901,
      "▁tal": 6902,
      ".C.": 6903,
      "▁warr": 6904,
      "-ਰ": 6905,
      "ਇਨ": 6906,
      "▁ਜਿਸਦੇ": 6907,
      "▁ਉੱਠ": 6908,
      "ij": 6909,
      "▁ਅੱਗ": 6910,
      "ਸਾਈ": 6911,
      "ਨਿਰ": 6912,
      "▁retire": 6913,
      "▁testimony": 6914,
      "▁ਅਨੁਸ਼ਾਸਨੀ": 6915,
      "▁(R": 6916,
      "▁lot": 6917,
      "ਜਰਾ": 6918,
      "▁sense": 6919,
      "▁big": 6920,
      "▁ਹਿੰਦੂ": 6921,
      "▁ਪ੍ਰਾਜੈਕਟ": 6922,
      "▁Ro": 6923,
      "▁aware": 6924,
      "▁ਪ੍ਰਸਾਦ": 6925,
      "▁ਹਮੇਸ਼ਾਂ": 6926,
      "▁ਅਸਪਸ਼ਟ": 6927,
      "▁mult": 6928,
      "▁ਕਿਲੋ": 6929,
      ".ਏ.": 6930,
      "s)": 6931,
      "▁ਅਤ": 6932,
      "▁Station": 6933,
      "▁strong": 6934,
      "▁ਅੱਖ": 6935,
      "▁ਖ਼ਤਮ": 6936,
      "▁ਲੰਬ": 6937,
      "▁193": 6938,
      "ieved": 6939,
      "▁ਧੀ": 6940,
      "▁fire": 6941,
      "▁freedom": 6942,
      "▁ਪ੍ਰਤੀਨਿ": 6943,
      "▁included": 6944,
      "▁ਸ਼ਰਮਾ": 6945,
      "▁move": 6946,
      "▁3,": 6947,
      "▁Sharm": 6948,
      "▁Schedule": 6949,
      "O.": 6950,
      "ਾਨਕ": 6951,
      "▁ਪਲੇ": 6952,
      "▁supported": 6953,
      "▁legislation": 6954,
      "ਤਨ": 6955,
      "▁ਮਿਲਣ": 6956,
      "▁ਟੀਮ": 6957,
      "▁Prin": 6958,
      "hai": 6959,
      "▁Limited": 6960,
      "ਕੀਨ": 6961,
      "▁error": 6962,
      "▁ਮੋਟਰ": 6963,
      "▁ਵੇਰਵੇ": 6964,
      "▁ਖੂਨ": 6965,
      "AS": 6966,
      "▁ਸੂਰ": 6967,
      "▁Will": 6968,
      "▁1998": 6969,
      "▁lay": 6970,
      "▁plant": 6971,
      "▁ਮੁਨਾ": 6972,
      "▁entry": 6973,
      "-6": 6974,
      "lf": 6975,
      "▁arising": 6976,
      "▁quality": 6977,
      "rd": 6978,
      "view": 6979,
      "▁ਕਰਜ਼ੇ": 6980,
      "▁ਬਿਹਤਰ": 6981,
      "ET": 6982,
      "▁crores": 6983,
      "com": 6984,
      "▁ਵੀਂ": 6985,
      "▁acts": 6986,
      "▁ਸੰਸ਼ੋਧ": 6987,
      "▁fully": 6988,
      "▁Pre": 6989,
      "▁team": 6990,
      "▁ਮੁਖ": 6991,
      "▁years,": 6992,
      "▁1997": 6993,
      "▁themsel": 6994,
      "▁consequent": 6995,
      ".ਓ": 6996,
      "▁live": 6997,
      "▁convicted": 6998,
      "▁ਸੋਚਦਾ": 6999,
      "▁ਕਹਿਣਾ": 7000,
      "▁ਭਾਲ": 7001,
      "▁ਕੁਲੈਕਟਰ": 7002,
      "ੱਤਿਆ": 7003,
      "▁eas": 7004,
      "riv": 7005,
      "▁stands": 7006,
      "▁petition.\n": 7007,
      "▁ਝਗੜੇ": 7008,
      "ene": 7009,
      "ਿੱਧ": 7010,
      "▁ਭੈ": 7011,
      "▁ਵਰਗੇ": 7012,
      "▁evidence,": 7013,
      "▁week": 7014,
      "▁ਐਸੋਸੀਏਸ਼ਨ": 7015,
      "▁ਧਾਰਨਾ": 7016,
      "▁wea": 7017,
      "▁version": 7018,
      "▁virt": 7019,
      "▁ਜ਼ਰੂਰਤਾਂ": 7020,
      "▁effective": 7021,
      "▁Nar": 7022,
      "▁actually": 7023,
      "▁ਸਮੁੰਦਰੀ": 7024,
      "K.": 7025,
      "▁ਆਰਬਿਟਰੇਟਰ": 7026,
      "▁reading": 7027,
      "▁ਇਰਾਦੇ": 7028,
      "▁ਹਦਾਇਤ": 7029,
      "▁ਚੇਅਰਮੈਨ": 7030,
      "▁Rec": 7031,
      "▁ਐਕੁਆ": 7032,
      "▁ਕਰਨਾਟਕ": 7033,
      "▁ਪ੍ਰਤੀਕਰਮ": 7034,
      "▁ਦਿਖਾਈ": 7035,
      "▁cru": 7036,
      "▁breach": 7037,
      "cri": 7038,
      "▁something": 7039,
      "▁custom": 7040,
      "▁ਲੈਂਦਾ": 7041,
      "ashtrapati": 7042,
      "▁ਚੰਦਰ": 7043,
      "▁ਸੰਭਾਵਤ": 7044,
      "ਿਆਰੀ": 7045,
      "▁rightly": 7046,
      "▁House": 7047,
      "▁Dis": 7048,
      "▁38": 7049,
      "▁ਜਾਵੇ।\n": 7050,
      "▁discharge": 7051,
      "ਕਰਾ": 7052,
      "▁ਬਿਨੈ-ਪੱਤਰ": 7053,
      "▁ਐਕੁਆਇਰ": 7054,
      "arch": 7055,
      "▁industrial": 7056,
      "▁\"ਇ": 7057,
      "lam": 7058,
      "ਸਾਂ": 7059,
      "RI": 7060,
      "▁ਸਟੇਸ਼ਨ": 7061,
      "aries": 7062,
      "▁ਹਾਦ": 7063,
      "▁ਪਾਈ": 7064,
      "ਟਰੋਲ": 7065,
      "▁ਅਧਿ": 7066,
      "-b": 7067,
      "▁ਰਿਸ਼ਤੇ": 7068,
      "▁station": 7069,
      "▁ਮਾਨਸਿਕ": 7070,
      "▁ਰਾਜਨੀਤਿਕ": 7071,
      "▁duly": 7072,
      "▁ਰੋਡ": 7073,
      "▁ਡਿਪਟੀ": 7074,
      "▁ਮੁਕਤ": 7075,
      "▁ਜਰ": 7076,
      "▁plaint": 7077,
      "▁ਕਨੂੰ": 7078,
      "aster": 7079,
      "▁i.e.,": 7080,
      "▁ਮਿੱ": 7081,
      "anchayat": 7082,
      "▁technical": 7083,
      "▁supply": 7084,
      "▁industry": 7085,
      "ਯੋਗੀ": 7086,
      "▁More": 7087,
      "▁basic": 7088,
      "ening": 7089,
      "▁film": 7090,
      "ਕਾਲ": 7091,
      "▁ਮਾਰਚ,": 7092,
      "-f": 7093,
      "iation": 7094,
      "▁Rashtrapati": 7095,
      "▁lev": 7096,
      "▁Kh": 7097,
      "45": 7098,
      "ਕਟ": 7099,
      "▁-\n": 7100,
      "▁licence": 7101,
      "▁explanation": 7102,
      "-8": 7103,
      "▁ਅਹਿ": 7104,
      "▁Prasad": 7105,
      "▁representation": 7106,
      "▁ਨਕਾਰ": 7107,
      "▁ਅਖ": 7108,
      "▁signed": 7109,
      "▁may,": 7110,
      "▁Similar": 7111,
      "▁weapon": 7112,
      "ਜ਼ਮ": 7113,
      "▁record.\n": 7114,
      "▁90": 7115,
      "ਨੋ": 7116,
      "▁Governor": 7117,
      "▁ਜੂ": 7118,
      "▁ਸਰਵਿਸ": 7119,
      "▁IT": 7120,
      "▁ign": 7121,
      "▁released": 7122,
      "ਵੀਨ": 7123,
      "▁sure": 7124,
      "▁ਵਾਪਰ": 7125,
      "▁mining": 7126,
      "ੰਮਲ": 7127,
      "▁ਚਾਹੁੰਦੇ": 7128,
      "▁ਚਿੰਤਾ": 7129,
      "▁ਹਟਾਉਣ": 7130,
      "▁seized": 7131,
      "ਲੀਅਤ": 7132,
      "▁consult": 7133,
      "▁cut": 7134,
      "▁girl": 7135,
      "▁ਅਣਹ": 7136,
      "▁Karnatak": 7137,
      "▁ਪਰੇ": 7138,
      "▁\"A": 7139,
      "▁\"In": 7140,
      "ਟਰਨ": 7141,
      "▁contempl": 7142,
      "▁ਪਾਬੰਦ": 7143,
      "▁ਵੋਟ": 7144,
      "ਪੁਰ,": 7145,
      "▁allegation": 7146,
      "▁Mo": 7147,
      "ਅੰਦਾਜ਼ੀ": 7148,
      "▁character": 7149,
      "▁ਲੋੜੀਂਦੇ": 7150,
      "▁ਅੰਦਾ": 7151,
      "▁State.\n": 7152,
      "ara": 7153,
      "▁ਫੌ": 7154,
      "irth": 7155,
      "▁remains": 7156,
      "endra": 7157,
      "ental": 7158,
      "▁returned": 7159,
      "▁dom": 7160,
      ".W": 7161,
      "▁reply": 7162,
      "iciary": 7163,
      "▁ਬੰਗ": 7164,
      "▁ਹਨ।": 7165,
      "▁ਡਰਾ": 7166,
      "▁ਯਾਤਰਾ": 7167,
      ".2000": 7168,
      "▁ਕਮੀ": 7169,
      "ury": 7170,
      "▁ਦਲੀਲਾਂ": 7171,
      "chan": 7172,
      "ival": 7173,
      "▁cases,": 7174,
      "▁aggrieved": 7175,
      "ੱਲੀ": 7176,
      "▁ਬਦਲਣ": 7177,
      "▁seek": 7178,
      "ps": 7179,
      "mine": 7180,
      "▁ਮਹਾਰਾਸ਼ਟਰ": 7181,
      "▁capacity": 7182,
      "▁48": 7183,
      "▁ਹੱਤਿਆ": 7184,
      "▁ਪ੍ਰੋਜੈਕਟ": 7185,
      "-7": 7186,
      "▁ਮੁਕੰਮਲ": 7187,
      "-ਨਾਲ": 7188,
      "▁2018": 7189,
      "elfare": 7190,
      "▁ਕਿਤਾਬ": 7191,
      "▁ਦਾਇਰੇ": 7192,
      "▁ਜੇਕਰ": 7193,
      "▁ਪ੍ਰਬੰਧਕੀ": 7194,
      "▁informant": 7195,
      "▁words,": 7196,
      "▁integ": 7197,
      "▁ਲਿਆਂਦਾ": 7198,
      "▁enjoy": 7199,
      "▁percent": 7200,
      "▁ਮੀਟਰ": 7201,
      "▁ਭੋਜ": 7202,
      "▁liqu": 7203,
      "▁(ਪ": 7204,
      "▁perusal": 7205,
      "▁ਗੰ": 7206,
      "▁ਖੁੱ": 7207,
      "▁compliance": 7208,
      "▁ਅਣਹੋਂਦ": 7209,
      "▁ਪਲ": 7210,
      "ੱਥੇ": 7211,
      "▁self": 7212,
      "▁served": 7213,
      "▁ਹੋਂਦ": 7214,
      "▁ਕਹਾ": 7215,
      "▁conferred": 7216,
      "▁thing": 7217,
      "▁ਸੁੰ": 7218,
      "▁ਨਾਲ-ਨਾਲ": 7219,
      "▁ਗਰੰਟੀ": 7220,
      "ਜ਼ਾਰੀ": 7221,
      "▁ਖੇਤਰੀ": 7222,
      "▁ਬ੍ਰਿ": 7223,
      "▁ਇੰਸਪੈਕਟਰ": 7224,
      "▁apparent": 7225,
      "▁ਕੱਪ": 7226,
      "▁ਹਟਾ": 7227,
      "duct": 7228,
      "▁ਦਰਅਸਲ,": 7229,
      "▁injunction": 7230,
      "▁host": 7231,
      "▁ਅਧੀਨਗੀ": 7232,
      "▁ਪੰਚਾਇਤ": 7233,
      "▁ਮਸ": 7234,
      "▁committee": 7235,
      "▁ਗੁਜਰਾ": 7236,
      "ਖਰਜੀ": 7237,
      "▁city": 7238,
      "▁\"ਇਸ": 7239,
      "▁air": 7240,
      "▁ਵਿਚਾਰ-ਵਟਾਂਦਰੇ": 7241,
      "▁likely": 7242,
      "▁prayer": 7243,
      "ously": 7244,
      "▁ਧਰ": 7245,
      "▁ਵਿਕਸਤ": 7246,
      ".ਆਰ.": 7247,
      "ਪੀਲ": 7248,
      "▁Sar": 7249,
      "▁employment": 7250,
      "▁ਮੁਖਰਜੀ": 7251,
      ".2001": 7252,
      "▁failure": 7253,
      "▁Inspect": 7254,
      "▁interference": 7255,
      "▁ਪਿੱਛ": 7256,
      "ns": 7257,
      "ਨਿਟ": 7258,
      "▁ਸੱਚਮੁੱਚ": 7259,
      "ancies": 7260,
      "ਿਓ": 7261,
      "▁Per": 7262,
      "▁ਪ੍ਰਸਤਾਵਿਤ": 7263,
      "▁amended": 7264,
      "▁advanced": 7265,
      "-A": 7266,
      "▁dest": 7267,
      "▁ult": 7268,
      "▁guidel": 7269,
      "▁ਮੁਕਾਬਲੇ": 7270,
      "▁ਅਪਵਾਦ": 7271,
      "▁factual": 7272,
      "▁evident": 7273,
      "▁ਦਸੰਬਰ,": 7274,
      "▁vested": 7275,
      "iously": 7276,
      "▁ਲਿਖਤ": 7277,
      "▁ਕਰਾਂ": 7278,
      "ਨਾਥ": 7279,
      "▁ਦਖਲਅੰਦਾਜ਼ੀ": 7280,
      "ਟੋ": 7281,
      "▁p.m": 7282,
      "▁ਡਰਾਈ": 7283,
      "▁obligation": 7284,
      "▁international": 7285,
      "▁default": 7286,
      "▁ਪਾਸੇ,": 7287,
      "▁ਤਲਾ": 7288,
      "ਗੇ।\n": 7289,
      "▁ਗ਼ੈਰ": 7290,
      "▁pers": 7291,
      "▁ਯਕੀਨ": 7292,
      "▁Keral": 7293,
      "▁disease": 7294,
      "▁Executive": 7295,
      "▁ਦ੍ਰਿਸ਼ਟੀ": 7296,
      "▁doctor": 7297,
      "▁No.5": 7298,
      "▁ਜ਼ਿੰਮੇਵਾਰੀਆਂ": 7299,
      "e.\n": 7300,
      "▁ਨਾਬਾਲ": 7301,
      "ਜੀਤ": 7302,
      "▁difference": 7303,
      "▁responsible": 7304,
      "▁names": 7305,
      "▁ਮੰਨਣਾ": 7306,
      "▁1994": 7307,
      "aled": 7308,
      "▁ਕਰਜ਼ਾ": 7309,
      "ਪਾਲਿਕਾ": 7310,
      "▁ਵੇਂ": 7311,
      "▁often": 7312,
      "▁quite": 7313,
      "▁accused,": 7314,
      "▁griev": 7315,
      "▁ਪਲਾਟ": 7316,
      "▁ਬਹਿਸ": 7317,
      "ott": 7318,
      "▁AIR": 7319,
      "ues": 7320,
      "▁ਵਸੂ": 7321,
      "▁determination": 7322,
      "▁ਸਦ": 7323,
      "▁collect": 7324,
      "▁ਖਰੀਦਦਾਰ": 7325,
      "ier": 7326,
      "▁ਵਿੱਤ": 7327,
      "▁laws": 7328,
      "▁insp": 7329,
      "ety": 7330,
      "▁ਇਲ": 7331,
      "asing": 7332,
      "੍ਰਿਆ": 7333,
      "▁School": 7334,
      "▁keeping": 7335,
      "▁suggestion": 7336,
      "ਮਾਨੀ": 7337,
      "▁ਕਾਰਨ,": 7338,
      "੍ਰੇਡ": 7339,
      "imately": 7340,
      "illion": 7341,
      "▁ਪ੍ਰਸ਼ਨਾਂ": 7342,
      "▁stating": 7343,
      "ਤਰੇ": 7344,
      "▁ਮਾਈਨਿੰਗ": 7345,
      "▁search": 7346,
      "▁answer": 7347,
      "▁ਬੁਲਾਇਆ": 7348,
      "▁ਸਪੱਸ਼ਟੀਕਰਨ": 7349,
      "▁firm": 7350,
      "▁ਹੁੰਦਾ,": 7351,
      "▁interfere": 7352,
      "▁warrant": 7353,
      "▁published": 7354,
      "▁ਵਿਚਾਲੇ": 7355,
      "ama": 7356,
      "▁undertak": 7357,
      "▁ਜਨਵਰੀ,": 7358,
      "▁ਕਰਦੀਆਂ": 7359,
      "▁ਪਿੱਛੇ": 7360,
      "▁ਭਲਾਈ": 7361,
      "▁instance": 7362,
      "▁ਸੰਪੂਰਨ": 7363,
      "▁ਸਾਲਾਨਾ": 7364,
      "▁scale": 7365,
      "▁produce": 7366,
      "ਾਵਾਂ": 7367,
      "▁rese": 7368,
      "hind": 7369,
      "ਹਿਰੀ": 7370,
      "ਬਾਰ": 7371,
      "▁eligible": 7372,
      "▁Asse": 7373,
      "lled": 7374,
      "▁ਪ੍ਰਸ਼ਾਸਨ": 7375,
      "▁option": 7376,
      "▁ਵਿਲ": 7377,
      "ਸਿਆਂ": 7378,
      "▁ਜਾਤੀ": 7379,
      "▁hands": 7380,
      "▁ਝਗੜਾ": 7381,
      "▁Bill": 7382,
      "▁ਨਮੂ": 7383,
      "▁altern": 7384,
      "ਰੇਲੂ": 7385,
      "▁Let": 7386,
      "22": 7387,
      "hest": 7388,
      "▁ਰੱਖਦਿਆਂ": 7389,
      "▁ਹਲਫਨਾਮੇ": 7390,
      "▁ਅਲਾਟਮੈਂਟ": 7391,
      "▁physical": 7392,
      "▁no.2": 7393,
      "▁indicated": 7394,
      ".I": 7395,
      "▁art": 7396,
      "jarat": 7397,
      "▁43": 7398,
      "▁scrutin": 7399,
      "▁administrative": 7400,
      "▁Government,": 7401,
      "▁ide": 7402,
      "ਰੀਏ": 7403,
      "▁disclosed": 7404,
      "jab": 7405,
      "▁constituted": 7406,
      "▁ਜਹਾ": 7407,
      "▁pot": 7408,
      "pecial": 7409,
      "ੌਲੀ": 7410,
      "ਚਨ": 7411,
      "▁be,": 7412,
      "ਸ,": 7413,
      "▁ਇਥੋਂ": 7414,
      "▁ਅਰਦਾਸ": 7415,
      "▁actual": 7416,
      "▁ਨਤੀਜਿਆਂ": 7417,
      "▁ਮਿਸ਼": 7418,
      "▁50%": 7419,
      "▁ਸ਼ਾਸਨ": 7420,
      "▁Ash": 7421,
      "▁1992": 7422,
      "▁ਉਲਝ": 7423,
      "▁ਲਾਅ": 7424,
      "▁Articles": 7425,
      "▁bearing": 7426,
      "ਾਇਤਾਂ": 7427,
      "▁seiz": 7428,
      "▁ਆਰਟੀਕਲ": 7429,
      "▁permissible": 7430,
      "▁regul": 7431,
      "▁thereby": 7432,
      "▁.ੰਗ": 7433,
      "ਕਸਦ": 7434,
      "ST": 7435,
      "▁ਮਕਸਦ": 7436,
      "▁Off": 7437,
      "▁Judg": 7438,
      "ਣਾਂ": 7439,
      "ingu": 7440,
      "vis": 7441,
      "ਾਤਾਂ": 7442,
      "▁ਹਿਸ": 7443,
      "▁ਤਿ": 7444,
      "▁Chairman": 7445,
      "▁ਪੂੰ": 7446,
      "▁Tamil": 7447,
      "▁ਠੀਕ": 7448,
      "▁ਕਿਲੋਮੀਟਰ": 7449,
      "ੰਸਾ": 7450,
      "▁ਮਨਜ਼ੂਰ": 7451,
      "▁ਘਟਾ": 7452,
      "▁ਗੁਜਰਾਤ": 7453,
      "ras": 7454,
      "▁don": 7455,
      "▁Fore": 7456,
      "▁discussed": 7457,
      "▁Bhavan": 7458,
      "iture": 7459,
      "▁reach": 7460,
      "▁ਆਖਰ": 7461,
      "▁exem": 7462,
      "▁ਲੰਘ": 7463,
      "▁attract": 7464,
      "/199": 7465,
      "▁revenue": 7466,
      "ਿੱਪ": 7467,
      "▁ਪ੍ਰਿੰ": 7468,
      "ression": 7469,
      "▁ਤੀਜੀ": 7470,
      "94": 7471,
      "ੰਜ": 7472,
      "▁ਘਟਨਾਵਾਂ": 7473,
      "No": 7474,
      "▁conver": 7475,
      "▁ਪਿਆਰ": 7476,
      "▁ਰਿਕਵਰੀ": 7477,
      "vision": 7478,
      "▁lost": 7479,
      "▁acquittal": 7480,
      "▁ਘਰੇਲੂ": 7481,
      "▁arrived": 7482,
      "▁Cr": 7483,
      "▁44": 7484,
      "▁ਅਧੀਨ,": 7485,
      "▁draw": 7486,
      "▁line": 7487,
      "]\n": 7488,
      "▁ਦ੍ਰਿ": 7489,
      "eared": 7490,
      "▁enter": 7491,
      "▁ਗਣਨਾ": 7492,
      "▁preced": 7493,
      "▁Having": 7494,
      "▁ਜਵਾਬਦੇਹੀ": 7495,
      "ਗੁਜ਼ਾਰੀ": 7496,
      "atter": 7497,
      "▁ਅਪ੍ਰੈਲ,": 7498,
      "▁ਅਗਸਤ,": 7499,
      "▁PW-2": 7500,
      "din": 7501,
      "▁ਤੱਤ": 7502,
      "▁appellant-": 7503,
      "ਟ੍ਰੇਸ਼ਨ": 7504,
      "▁bad": 7505,
      "▁75": 7506,
      "▁ਵਸੂਲੀ": 7507,
      "certain": 7508,
      "▁ਤੁਲਨਾ": 7509,
      "▁territ": 7510,
      "▁ਵਾਧੇ": 7511,
      "ਨਿਯ": 7512,
      "▁Trust": 7513,
      "▁ਸੰਪਰ": 7514,
      "▁Madh": 7515,
      "mbly": 7516,
      "▁ਬੱਸ": 7517,
      "▁ਥੋੜ": 7518,
      "IA": 7519,
      "▁ਅਨੁਮਾਨ": 7520,
      "▁ਆਖਰਕਾਰ": 7521,
      "▁structure": 7522,
      "▁recording": 7523,
      ".A.": 7524,
      "▁ਪ੍ਰਗਟਾ": 7525,
      "▁ਅਚਾਨਕ": 7526,
      "▁oral": 7527,
      "▁ਸ਼ਾਨ": 7528,
      "▁ਚੁਣੇ": 7529,
      "▁ਢ": 7530,
      "▁(B": 7531,
      "▁Em": 7532,
      "▁ਹੈ)": 7533,
      "▁fulf": 7534,
      "▁times": 7535,
      "▁ਮੱਧ": 7536,
      "ੈਂਸੀ": 7537,
      "ਲੀਕੇਸ਼ਨ": 7538,
      "▁increase": 7539,
      "▁ਪੁਨਰ": 7540,
      "▁ਹਲਫੀਆ": 7541,
      "▁ਜੁਰਮਾਨਾ": 7542,
      "/or": 7543,
      "▁lodged": 7544,
      "▁wa": 7545,
      "ਬਲਿਕ": 7546,
      "▁behind": 7547,
      "change": 7548,
      "formation": 7549,
      "ifications": 7550,
      "ਵੀਰ": 7551,
      "▁55": 7552,
      "▁ਐਂਟਰੀ": 7553,
      "indu": 7554,
      "▁\"\n": 7555,
      "▁ਕਵਰ": 7556,
      "oor": 7557,
      "heet": 7558,
      "ਾਰਨੀ": 7559,
      "ਵਰਤੋਂ": 7560,
      "▁Investigating": 7561,
      "ender": 7562,
      "▁determine": 7563,
      "acted": 7564,
      "▁ਧਾਰਮਿਕ": 7565,
      "▁Plaintiff": 7566,
      "▁lack": 7567,
      "▁Maharashtra": 7568,
      "▁ਦਿੱਤਾ,": 7569,
      "▁added": 7570,
      "▁ਭਾਰੀ": 7571,
      "ਜ਼,": 7572,
      "ੁੱਪ": 7573,
      "▁ਹਾਲਾਤਾਂ": 7574,
      "▁reiter": 7575,
      "/s": 7576,
      "iy": 7577,
      "▁which,": 7578,
      "▁job": 7579,
      "▁extend": 7580,
      "▁ਫੈ": 7581,
      "▁access": 7582,
      "▁mus": 7583,
      "▁marks": 7584,
      "▁mut": 7585,
      "▁portion": 7586,
      "11": 7587,
      "ਬੋਧ": 7588,
      "▁ਕਾਰਗੁਜ਼ਾਰੀ": 7589,
      "ਐਸਆਈ": 7590,
      "▁ਰੋਕਿਆ": 7591,
      "▁ਦੁਰਵਰਤੋਂ": 7592,
      "▁ਧਾਰਕ": 7593,
      "▁ਜ਼ਿਆਦਾਤਰ": 7594,
      "airs": 7595,
      "/3": 7596,
      "▁ਬਿੰ": 7597,
      "▁deg": 7598,
      "▁ਜਿਹੀ": 7599,
      "ਸ਼ੁ": 7600,
      "am,": 7601,
      "▁ਸ਼ੀ": 7602,
      "▁ਬਿਆ": 7603,
      "▁58": 7604,
      "▁1961": 7605,
      "▁ਇਕੱਤਰ": 7606,
      "▁ਪੂੰਜੀ": 7607,
      "▁parties,": 7608,
      "▁ਰੈਗੂਲੇਸ਼ਨ": 7609,
      "▁ਬਿਮਾਰੀ": 7610,
      "▁ਵਿਸ਼ੇਸ਼ਤਾਵਾਂ": 7611,
      "▁merits": 7612,
      "▁ਸਤੰਬਰ,": 7613,
      "▁ਠਹਿਰਾਉਣ": 7614,
      "▁ਨਿਰਾ": 7615,
      "olly": 7616,
      "ਕਾਏ": 7617,
      "▁ਵਰਤਿਆ": 7618,
      "cell": 7619,
      "▁ਮੰਡਲ": 7620,
      "▁places": 7621,
      "▁ਪ੍ਰਦਰਸ਼ਨੀ": 7622,
      "▁ਇੰਡ": 7623,
      "▁A-1": 7624,
      "▁completion": 7625,
      "▁ਪਹਿਲੂਆਂ": 7626,
      "ademic": 7627,
      "▁ਫੁੱਟ": 7628,
      "▁ਨੈਸ਼ਨਲ": 7629,
      "▁ਸੁਨਿਸ਼ਚਿਤ": 7630,
      "elt": 7631,
      "▁Des": 7632,
      "▁training": 7633,
      "▁ਗੁਆ": 7634,
      "ਤਕਾਰ": 7635,
      "▁ਬਣਾਉਂਦਾ": 7636,
      "o,": 7637,
      "▁ਅਪਰਾਧੀ": 7638,
      "▁ਰਿਜ਼ਰ": 7639,
      "▁disputed": 7640,
      "uge": 7641,
      "▁(M": 7642,
      "ਦਰਾ": 7643,
      "iti": 7644,
      "▁ਸ਼੍ਰੀਮਤੀ": 7645,
      "rine": 7646,
      "▁pursuant": 7647,
      "ਫੇ": 7648,
      "▁amounts": 7649,
      "▁ਤਾਮ": 7650,
      "▁appeal.\n": 7651,
      "▁',": 7652,
      "ਸ਼ੀਅਲ": 7653,
      "▁ਵਾਪਸੀ": 7654,
      "▁ਰਹੀਆਂ": 7655,
      "-ਏ": 7656,
      "▁chang": 7657,
      "▁thus,": 7658,
      "▁little": 7659,
      "▁Ref": 7660,
      "▁United": 7661,
      "▁partn": 7662,
      "▁ਉਲਟ,": 7663,
      "ਸੀਆਈ": 7664,
      "rug": 7665,
      "▁emphas": 7666,
      "……": 7667,
      "▁definition": 7668,
      "▁Pur": 7669,
      "▁directly": 7670,
      "▁ਵਰਤੇ": 7671,
      "▁extre": 7672,
      "▁constitute": 7673,
      "▁expected": 7674,
      "▁past": 7675,
      "▁ਪੰਜਾ": 7676,
      "▁Procedure": 7677,
      "▁ਬਣਾਉਣਾ": 7678,
      "▁growth": 7679,
      "▁Gujarat": 7680,
      "alu": 7681,
      "▁and/or": 7682,
      "▁ਮਈ,": 7683,
      "▁tender": 7684,
      "ੇਕ": 7685,
      "▁ਮਾਪਿਆਂ": 7686,
      "ਰੀਬਨ": 7687,
      "▁hon": 7688,
      "▁property.\n": 7689,
      "ਮੂਲੀਅਤ": 7690,
      "▁facie": 7691,
      "lish": 7692,
      "▁ਵਿਗਾ": 7693,
      "▁CBI": 7694,
      "▁ਤਕਰੀਬਨ": 7695,
      "▁almost": 7696,
      "▁College": 7697,
      "kar": 7698,
      "▁ਪਾਰਕ": 7699,
      "▁opposite": 7700,
      "▁experience": 7701,
      "▁'t": 7702,
      "▁expens": 7703,
      "▁ਝੂਠੇ": 7704,
      "▁ਤਤਕਾਲ": 7705,
      "▁ਜ਼ਰੀਏ": 7706,
      "▁duties": 7707,
      "ground": 7708,
      "▁proceeded": 7709,
      "▁Im": 7710,
      "ra,": 7711,
      "5.\n": 7712,
      "▁sustained": 7713,
      "ordinate": 7714,
      "▁Associ": 7715,
      "ਡੈਂਟ": 7716,
      "▁ਕੈਂ": 7717,
      "▁ਜਿਹੜੀ": 7718,
      "▁Education": 7719,
      "▁ਤਹਿਤ,": 7720,
      "▁remained": 7721,
      "▁ਅਟਾਰਨੀ": 7722,
      "▁park": 7723,
      "iring": 7724,
      "▁ਦਾਅਵਿਆਂ": 7725,
      "▁ਗਾਹ": 7726,
      "▁Super": 7727,
      "▁Prosec": 7728,
      "▁suggest": 7729,
      "▁ਜੰ": 7730,
      "▁net": 7731,
      "▁ਰੋਜ਼": 7732,
      "ਵਾਹ": 7733,
      "▁void": 7734,
      "▁ਸ਼ਮੂਲੀਅਤ": 7735,
      "ipur": 7736,
      "▁claimant": 7737,
      "▁ਆਦਮੀ": 7738,
      "▁address": 7739,
      "▁strict": 7740,
      "▁Provided": 7741,
      "verse": 7742,
      "▁youn": 7743,
      "▁ਸਹਿਕਾਰੀ": 7744,
      "▁ਲੇਬਰ": 7745,
      "▁Revenue": 7746,
      "▁A.": 7747,
      "▁excess": 7748,
      "▁arrested": 7749,
      "▁administration": 7750,
      "▁things": 7751,
      "▁lower": 7752,
      ".R.": 7753,
      "▁ਜਿੱਤ": 7754,
      "▁disciplinary": 7755,
      "unicipal": 7756,
      "▁ਹਮੇਸ਼ਾ": 7757,
      "▁Mukher": 7758,
      "(2)": 7759,
      "▁problem": 7760,
      "21": 7761,
      "ਾਇਣ": 7762,
      "▁ਵਸਨੀ": 7763,
      "▁quar": 7764,
      "▁seven": 7765,
      "▁register": 7766,
      "▁ਮੇਲ": 7767,
      "▁rather": 7768,
      "▁US": 7769,
      "▁standard": 7770,
      "▁unable": 7771,
      "▁ਐਪਲੀਕੇਸ਼ਨ": 7772,
      "ਬਰੀ": 7773,
      "▁Resident": 7774,
      "▁ਫਰਜ਼": 7775,
      "umbai": 7776,
      "▁ਖ਼ੁ": 7777,
      "▁ਜਾਵੇਗਾ।\n": 7778,
      "▁create": 7779,
      "▁ਰਹਿੰਦੇ": 7780,
      "▁forth": 7781,
      "ੈਕਸ਼ਨ": 7782,
      "▁.5": 7783,
      "▁Administr": 7784,
      "▁ਸ਼ੁਰੂਆਤੀ": 7785,
      "encies": 7786,
      "▁(c)": 7787,
      "▁quashed": 7788,
      "▁sister": 7789,
      "▁ਰਾਇ": 7790,
      "▁ਪੱਛਮੀ": 7791,
      "▁ਫਸ": 7792,
      "▁significant": 7793,
      "90": 7794,
      "▁ਪ੍ਰਸ਼": 7795,
      "tained": 7796,
      "▁completely": 7797,
      "▁ਨਦੀ": 7798,
      "▁ਰੌ": 7799,
      "▁ਮੁਖਬਰ": 7800,
      "▁frame": 7801,
      "ਭੂ": 7802,
      "ading": 7803,
      "▁ਦ੍ਰਿੜ": 7804,
      "▁affected": 7805,
      "▁incorpor": 7806,
      "67": 7807,
      "▁ਸਜਾ": 7808,
      "ਵਾਲੀ": 7809,
      "▁granting": 7810,
      "ਿਸਟ": 7811,
      "▁uncon": 7812,
      "▁servant": 7813,
      "▁ਵਿਵਾਦਾਂ": 7814,
      "▁ਟੈਲੀ": 7815,
      "▁ਹੋਰਾਂ": 7816,
      "▁arguments": 7817,
      "ਾਂਸੀ": 7818,
      "▁\"It": 7819,
      "▁rul": 7820,
      "▁ਲਾਗਤ": 7821,
      "▁ਅਧਿਐਨ": 7822,
      "ੰਤੂ": 7823,
      "▁agency": 7824,
      "▁(D": 7825,
      "ਵਰੇ": 7826,
      "▁ਤਾਮਿਲ": 7827,
      "▁Intern": 7828,
      "▁ਲਾਈਨ": 7829,
      "▁ਪੁਰਾਣੇ": 7830,
      "▁ਬਿਆਨਾਂ": 7831,
      "▁ਦੱਸਣਾ": 7832,
      "▁mortg": 7833,
      "-ਕ": 7834,
      "▁initiated": 7835,
      "ਨਸ": 7836,
      "▁limitation": 7837,
      "▁Village-": 7838,
      "▁offer": 7839,
      "itable": 7840,
      "▁ਕਸ": 7841,
      "▁hal": 7842,
      "pur,": 7843,
      "▁ਮਾਪਦੰਡਾਂ": 7844,
      "▁Ma": 7845,
      "eet": 7846,
      "▁ਫੈਕ": 7847,
      "▁ਸਲਾਹਕਾਰ": 7848,
      "▁prejudice": 7849,
      "▁democ": 7850,
      "▁equal": 7851,
      "AC": 7852,
      "▁bon": 7853,
      "▁ਲੱਗਣ": 7854,
      "▁ਗੁਪ": 7855,
      "▁red": 7856,
      "▁ਜਾਇਦਾਦਾਂ": 7857,
      "▁indicate": 7858,
      "▁ਜਾਏਗੀ.\n": 7859,
      "adav": 7860,
      "▁ਸੰਤੁਲ": 7861,
      "▁Prak": 7862,
      "ider": 7863,
      "▁Hind": 7864,
      "▁ਮੁੰਬ": 7865,
      "orney": 7866,
      "▁appeared": 7867,
      "sing": 7868,
      "▁prec": 7869,
      "▁ow": 7870,
      "▁ਭੱਜ": 7871,
      "▁Legislature": 7872,
      "▁heart": 7873,
      "ਡੀਅਨ": 7874,
      "▁invok": 7875,
      "▁tele": 7876,
      "▁ਕੰਟਰੋਲ": 7877,
      "▁Accused": 7878,
      "▁facilities": 7879,
      "eric": 7880,
      "▁ਨੇੜ": 7881,
      "▁ਸੌਂਪੀ": 7882,
      "▁ਟ੍ਰਾਂਸਫਰ": 7883,
      "EL": 7884,
      "▁div": 7885,
      "▁Rs.5": 7886,
      "▁ਅਸਥਾਈ": 7887,
      "▁influ": 7888,
      "▁ਮੁਲਾਕਾ": 7889,
      "▁Mukherjee": 7890,
      "illing": 7891,
      "▁ਮੁੰਬਈ": 7892,
      "▁loan": 7893,
      "ਸੀਅਤ": 7894,
      "▁takes": 7895,
      "▁ਹੋਏਗਾ": 7896,
      "▁broad": 7897,
      "▁Princip": 7898,
      "▁ਸੰਬੋਧ": 7899,
      "▁instead": 7900,
      "icide": 7901,
      "ਹੂ": 7902,
      "ਦੀਕ": 7903,
      "AM": 7904,
      "▁arrange": 7905,
      "▁ਫਾਇ": 7906,
      "spective": 7907,
      "▁ਅਧਾਰ'": 7908,
      "▁ਡਿਫ": 7909,
      "▁carrying": 7910,
      "▁Hindu": 7911,
      "▁ਜ਼ੁਰਮਾਨ": 7912,
      "ung": 7913,
      "▁ਰਹਿੰਦਾ": 7914,
      "▁burden": 7915,
      "ਸ਼ੁਦਾ": 7916,
      "▁47": 7917,
      "▁ਪੇਸ਼ੇਵਰ": 7918,
      "▁List": 7919,
      "▁ਡਿਜ਼": 7920,
      "▁Panchayat": 7921,
      "ਨਾਲੋਜੀ": 7922,
      "▁sector": 7923,
      "ਜ਼ੁਰ": 7924,
      "▁Chap": 7925,
      "▁ਕ੍ਰਮਵਾਰ": 7926,
      "-ਨਿਰ": 7927,
      "27": 7928,
      "3.\n": 7929,
      "▁bod": 7930,
      "▁ਸਿਰਫ਼": 7931,
      "▁ਬਕਾਏ": 7932,
      "ude": 7933,
      "▁wide": 7934,
      "▁sam": 7935,
      "▁ਸਰਕੂਲ": 7936,
      "▁ਆਯੋਜਿਤ": 7937,
      "pro": 7938,
      "▁41": 7939,
      "▁ਕਮਰੇ": 7940,
      "far": 7941,
      "▁ਕਿਰ": 7942,
      "otel": 7943,
      "▁ਜੁਲਾਈ,": 7944,
      "▁ਸਿੰਘ,": 7945,
      "▁ਮਿਲੇ": 7946,
      "▁Registrar": 7947,
      "▁ਪੈਂ": 7948,
      "▁Ju": 7949,
      "▁ਉਤਪਾਦਾਂ": 7950,
      "▁Sab": 7951,
      "▁Mal": 7952,
      "ਗੀ।\n": 7953,
      "▁ਉਪਕਰਣ": 7954,
      "▁commence": 7955,
      "▁ਉਠਾਏ": 7956,
      "▁win": 7957,
      "▁men": 7958,
      "▁Ent": 7959,
      "▁meant": 7960,
      "▁discrimin": 7961,
      ".ਐੱਮ": 7962,
      "ਿਯ": 7963,
      "▁motor": 7964,
      "▁functions": 7965,
      "▁ਕਰੀਬ": 7966,
      "▁ਜੇਲ੍ਹ": 7967,
      "▁tot": 7968,
      "▁max": 7969,
      "▁ਇਸ਼ਾਰਾ": 7970,
      "ocation": 7971,
      "▁unit": 7972,
      "▁ਆਕਰ": 7973,
      "▁ਗ੍ਰਾਂਟ": 7974,
      "sequently,": 7975,
      "▁M.": 7976,
      "▁ਹਾਸ": 7977,
      "▁aspects": 7978,
      "operative": 7979,
      "adi": 7980,
      "ਕੋਣ": 7981,
      "ਮਤਾਂ": 7982,
      "▁settlement": 7983,
      "▁volunt": 7984,
      "▁ਮਨਾ": 7985,
      "▁ST": 7986,
      "▁ਚਿੱਤਰ": 7987,
      "stituted": 7988,
      "▁Trans": 7989,
      "▁ਨਵੀਨੀ": 7990,
      "▁ਬਣੇ": 7991,
      "▁ਦਰਸਾਉਂਦੇ": 7992,
      "▁ਪੇਸ਼ਕਾਰੀ": 7993,
      "▁ਨਿਯਮ,": 7994,
      "▁ਅਪਣਾਇਆ": 7995,
      "▁site": 7996,
      "ograph": 7997,
      "▁proceedings.\n": 7998,
      "▁themselves": 7999,
      "ਗੀ,": 8000,
      "▁respondent.\n": 8001,
      "▁especial": 8002,
      "▁detailed": 8003,
      "▁ਸੰਗਠਨ": 8004,
      "▁ਰਾਸ਼ੀ": 8005,
      "▁Gupt": 8006,
      "ਧਿਕਾਰ": 8007,
      "▁Smt.": 8008,
      "▁ਨਿਆਂਪਾਲਿਕਾ": 8009,
      "▁emb": 8010,
      "▁ਭੋਜਨ": 8011,
      "held": 8012,
      "ਜਾਂ": 8013,
      "ਪੁ": 8014,
      "▁assum": 8015,
      "▁ਕਾਰਜਸ਼ੀਲ": 8016,
      "▁ਪੇਂ": 8017,
      "▁Assess": 8018,
      "▁named": 8019,
      "▁ਫਰਮ": 8020,
      "▁ਰਿਪੋਰਟਾਂ": 8021,
      "▁Depart": 8022,
      "▁ਸ਼ਾਨਦਾਰ": 8023,
      "▁birth": 8024,
      "▁writing": 8025,
      "▁March,": 8026,
      "▁ਸੰਪਰਕ": 8027,
      "▁collected": 8028,
      "▁running": 8029,
      "ੋਟੀ": 8030,
      "▁prescrib": 8031,
      "ally,": 8032,
      "▁prayed": 8033,
      "▁ant": 8034,
      "▁flow": 8035,
      "▁ਜੀਵ": 8036,
      "▁ਮਿਸ": 8037,
      "▁communication": 8038,
      "▁ਤਬਾਦਲੇ": 8039,
      "▁charged": 8040,
      "ੈਂਕ": 8041,
      "▁using": 8042,
      "agar": 8043,
      "ਦਾਂ": 8044,
      "▁ਦੋਸ਼ੀਆਂ": 8045,
      "▁ਨਿਯੰਤਰਿਤ": 8046,
      "▁ਪਦਾਰਥਕ": 8047,
      "▁ris": 8048,
      "▁ਬੇਲੋ": 8049,
      "▁cheque": 8050,
      "▁ਕਮਜ਼ੋਰ": 8051,
      "▁000": 8052,
      "▁regards": 8053,
      "▁ਰਜਿਸਟ੍ਰੇਸ਼ਨ": 8054,
      "ਤਰਾ": 8055,
      "▁ਵਿਚਾਰੇ": 8056,
      "▁ਨਿਰਣਾਇਕ": 8057,
      "▁prima": 8058,
      "▁ਜ਼ਾਬ": 8059,
      "▁record,": 8060,
      "ਾਲਾ": 8061,
      "▁57": 8062,
      "▁ਬਾਜ਼ਾਰ": 8063,
      "▁religious": 8064,
      "▁ਪੰਜਾਬ": 8065,
      "▁ਸੌਂਪਿਆ": 8066,
      "........": 8067,
      "▁ਦ੍ਰਿਸ਼ਟੀਕੋਣ": 8068,
      "br": 8069,
      "▁Case": 8070,
      "▁Ah": 8071,
      "▁ਤੇਜ਼ੀ": 8072,
      "▁ਸਰੋਤਾਂ": 8073,
      "(1": 8074,
      "istic": 8075,
      "▁game": 8076,
      "-ਬ": 8077,
      "▁bi": 8078,
      "▁pleaded": 8079,
      "PP": 8080,
      "▁ਲੋਕਤ": 8081,
      "▁contrad": 8082,
      "ਵਸ": 8083,
      "endency": 8084,
      "▁ਉੱਦ": 8085,
      "▁ਪੈਸ": 8086,
      "▁46": 8087,
      "pective": 8088,
      "▁land.\n": 8089,
      "▁ਤੀਜੇ": 8090,
      "▁ਲਾਈ": 8091,
      "▁Bal": 8092,
      "▁ਅਸਰ": 8093,
      "▁aud": 8094,
      "▁distance": 8095,
      "▁4,": 8096,
      "▁deals": 8097,
      "▁ਜਿਹੜਾ": 8098,
      "▁ਉਠਾਇਆ": 8099,
      "cription": 8100,
      "▁Chapter": 8101,
      "ਗਾਂ": 8102,
      "▁measures": 8103,
      "▁ਕਹਾਣੀ": 8104,
      "ship": 8105,
      "ਮੀਨੀ": 8106,
      "▁Lord": 8107,
      "ੈਡਿਟ": 8108,
      "enance": 8109,
      "▁Sal": 8110,
      "▁ਘਟਾਉਣ": 8111,
      "▁ਅਧਿਆਪ": 8112,
      "▁Nos.": 8113,
      "▁Before": 8114,
      "DA": 8115,
      "▁Pand": 8116,
      "▁ਉਪਬੰਧ": 8117,
      "▁educational": 8118,
      "▁disputes": 8119,
      "▁ਬਲਾਤਕਾਰ": 8120,
      "isc": 8121,
      "▁resour": 8122,
      "ysis": 8123,
      "sofar": 8124,
      "▁ਯਾਦਵ": 8125,
      "ਬਾਦੀ": 8126,
      "▁Beng": 8127,
      "▁leading": 8128,
      "▁Punjab": 8129,
      "ilt": 8130,
      "▁ਅੰਤਰ-ਜਾਂਚ": 8131,
      "▁handed": 8132,
      "▁ਪੂਰਤੀ": 8133,
      "idd": 8134,
      "▁ਠੋਸ": 8135,
      "▁ਹੋਣਗੇ.\n": 8136,
      "▁mob": 8137,
      "utor": 8138,
      "▁Ter": 8139,
      "▁ਹਿੱਸਿਆਂ": 8140,
      "▁ਮਸ਼ੀਨ": 8141,
      "▁ਦੇਹ": 8142,
      "▁despite": 8143,
      "▁ਜੈਨ": 8144,
      "▁restriction": 8145,
      "▁renew": 8146,
      "▁judgment,": 8147,
      "ological": 8148,
      "▁parts": 8149,
      "▁la": 8150,
      "▁ਅਹੁਦਾ": 8151,
      "▁ਵਿਦਿਆਰਥੀ": 8152,
      "▁responsibility": 8153,
      "▁works": 8154,
      "▁it,": 8155,
      "▁deposited": 8156,
      "▁(iii)": 8157,
      "▁ਪਾਏ": 8158,
      "▁foot": 8159,
      "▁begin": 8160,
      "▁link": 8161,
      "▁unre": 8162,
      "▁ਹਜ਼ਾਰ": 8163,
      "▁namely": 8164,
      "▁Sah": 8165,
      "▁ਅਨੰਦ": 8166,
      "▁ਆਮਦਨ": 8167,
      "▁ਬਿੰਦੂ": 8168,
      "▁ਦਿਮਾ": 8169,
      ".ਡੀ.": 8170,
      "▁recruitment": 8171,
      "rast": 8172,
      "▁ਠੇਕੇਦਾਰ": 8173,
      "-d": 8174,
      "iss": 8175,
      "▁exceed": 8176,
      "▁proposition": 8177,
      "00,000": 8178,
      "▁avoid": 8179,
      "▁mandatory": 8180,
      "▁gives": 8181,
      "▁investigating": 8182,
      "▁ਕਰੋ.\n": 8183,
      "ਗੋ": 8184,
      "ਵਤੀ": 8185,
      "▁ਖੋਜਾਂ": 8186,
      "▁ਪਏ": 8187,
      "▁ਰਣ": 8188,
      "▁court,": 8189,
      "▁especially": 8190,
      "▁ਸੰਗੀ": 8191,
      "▁Annexure": 8192,
      "▁ਮਤੇ": 8193,
      "vement": 8194,
      "▁ਪਹੁੰਚੇ": 8195,
      "▁ਗਰਭ": 8196,
      "▁ਹੋਵੇਗਾ।\n": 8197,
      "oud": 8198,
      "CI": 8199,
      "▁ਖਣ": 8200,
      "▁country.\n": 8201,
      "▁dischar": 8202,
      "ਖਮ": 8203,
      "▁-4": 8204,
      "ੈਸਰ": 8205,
      "▁data": 8206,
      "▁42": 8207,
      "▁ਕਾਰਪੋਰੇਟ": 8208,
      "▁absolutely": 8209,
      "▁ਰੋਗ": 8210,
      "▁however": 8211,
      "ਨਾਡੂ": 8212,
      "▁ਪਰ,": 8213,
      "▁Direct": 8214,
      "▁ਹਮਲੇ": 8215,
      "▁Inspector": 8216,
      "▁includes": 8217,
      "asm": 8218,
      "▁univers": 8219,
      "▁ਵਾਂਝ": 8220,
      "▁ਮਾਲਕੀ": 8221,
      "▁cross-examination": 8222,
      "ਐਕਸ": 8223,
      "▁ਤੁਹਾਡੀ": 8224,
      "▁parents": 8225,
      "-ਇ": 8226,
      "▁ਸੀਮਿਤ": 8227,
      "▁belonging": 8228,
      "▁ਹਿਸਾਬ": 8229,
      "ਕਤਾ": 8230,
      "▁pack": 8231,
      "▁coll": 8232,
      "▁ਅਮਰੀਕਾ": 8233,
      "▁K.": 8234,
      "▁assets": 8235,
      "▁living": 8236,
      "▁ਕਾਰਡ": 8237,
      "▁ਕਿਰਾਇਆ": 8238,
      "▁ਸਤਿਕਾਰ": 8239,
      "▁extreme": 8240,
      "▁ਵਿਗਾੜ": 8241,
      "▁39": 8242,
      "▁Krish": 8243,
      "▁guidelines": 8244,
      "▁confession": 8245,
      "▁enough": 8246,
      "▁purchased": 8247,
      "state": 8248,
      "▁ਉੱਤਮ": 8249,
      "▁ਆਂ": 8250,
      "▁sustain": 8251,
      "▁ਸੈਕਟਰ": 8252,
      "▁ਪੈਕ": 8253,
      "▁dutyਟੀ": 8254,
      "▁ਗਾਰ": 8255,
      "▁inside": 8256,
      "ਏਟ": 8257,
      "▁ਸਰਵੇ": 8258,
      "▁explained": 8259,
      "▁oil": 8260,
      "▁staff": 8261,
      "▁ਸੁੰਦਰ": 8262,
      "▁z": 8263,
      "▁1990": 8264,
      "▁remedy": 8265,
      "▁ਕਿਤੇ": 8266,
      "aded": 8267,
      "▁enable": 8268,
      "▁ਵਰਗੀ": 8269,
      "▁employer": 8270,
      "▁exclud": 8271,
      "▁ਮੁਕਾਬਲਾ": 8272,
      "▁Information": 8273,
      "ਖੀਰ": 8274,
      "▁history": 8275,
      "▁Bihar": 8276,
      "▁remaining": 8277,
      "▁suffered": 8278,
      "▁Mumbai": 8279,
      "▁ਸਾਵਧਾਨ": 8280,
      "▁source": 8281,
      "hra": 8282,
      "ਯਾਤ": 8283,
      "▁ਸ਼ਿਕਾਇਤਾਂ": 8284,
      "▁Yadav": 8285,
      "▁ਸਰਕੂਲਰ": 8286,
      "▁ascertain": 8287,
      "▁PRES": 8288,
      "▁2nd": 8289,
      "rief": 8290,
      "▁ਫਰਵਰੀ,": 8291,
      "▁aside.\n": 8292,
      "porary": 8293,
      "▁forest": 8294,
      "▁mach": 8295,
      "▁ਪ੍ਰੇਰਿਤ": 8296,
      "▁ਪਿੰਡ-": 8297,
      "▁ਲੈਂਦੇ": 8298,
      "▁Ac": 8299,
      "▁ਗੁਪਤ": 8300,
      "ਧੁ": 8301,
      "▁ਬਿਹਾਰ": 8302,
      "ਦਾਇਕ": 8303,
      "▁ਸਨਮਾਨ": 8304,
      "▁ਨਿਲਾਮੀ": 8305,
      "▁PO": 8306,
      "▁ਅਹਾ": 8307,
      "▁ਬੰਨ": 8308,
      "▁cad": 8309,
      "▁ਲੋੜੀਂਦਾ": 8310,
      "▁ਹਾਂ.": 8311,
      "▁Income": 8312,
      "▁ਦੱਸਦਾ": 8313,
      "▁removal": 8314,
      "▁advertise": 8315,
      "▁quash": 8316,
      "▁countries": 8317,
      "▁although": 8318,
      "▁January": 8319,
      "▁story": 8320,
      "▁Nadu": 8321,
      "▁ਅਰਥਾਤ,": 8322,
      "▁tour": 8323,
      "▁extra": 8324,
      "▁buy": 8325,
      "▁assistance": 8326,
      "eness": 8327,
      "▁doctrine": 8328,
      "▁cognizance": 8329,
      "▁expert": 8330,
      "au": 8331,
      "as,": 8332,
      "▁ਅਸਮਰੱਥ": 8333,
      "▁typ": 8334,
      "▁ਰਿਟਾਇਰਮੈਂਟ": 8335,
      "▁ਚੋਣਾਂ": 8336,
      "▁ਏਅਰ": 8337,
      "ਮਜ਼": 8338,
      "▁binding": 8339,
      "▁ਭੇਜਣ": 8340,
      "▁engaged": 8341,
      "▁ਅਧਿਆਪਕਾਂ": 8342,
      "▁Both": 8343,
      "▁Karnataka": 8344,
      "▁ਅਖੀਰ": 8345,
      "▁ਜਿਸਨੂੰ": 8346,
      "▁ਡਿਗਰੀ": 8347,
      "▁requirements": 8348,
      "▁esc": 8349,
      "▁deceased,": 8350,
      "▁connected": 8351,
      "▁cond": 8352,
      "▁500": 8353,
      "▁prohib": 8354,
      "ਸੀਪਲ": 8355,
      "▁articles": 8356,
      "▁academic": 8357,
      "▁Constitution.\n": 8358,
      "▁ਸਕੇਲ": 8359,
      "▁ਕੁਦਰਤ": 8360,
      "▁Agreement": 8361,
      "▁adequ": 8362,
      "▁ਟਿੱਪ": 8363,
      "▁matter,": 8364,
      "▁Scheduled": 8365,
      "▁Collector": 8366,
      "▁Office": 8367,
      "੍ਰਿਸ਼ਟ": 8368,
      "▁April,": 8369,
      "-10": 8370,
      "▁ਕੀਮਤਾਂ": 8371,
      "▁ਸਟਾਫ": 8372,
      "▁ਕਰਜ਼": 8373,
      "▁ਸਮਝਣ": 8374,
      "▁ਪੂਰਨ": 8375,
      "▁farm": 8376,
      "▁ਕਰਨਾ,": 8377,
      "▁Exhibit": 8378,
      "14": 8379,
      "▁Son": 8380,
      "▁Rail": 8381,
      "▁65": 8382,
      "▁petition,": 8383,
      "▁Dev": 8384,
      "▁ਪ੍ਰਮਾਣਿਤ": 8385,
      "▁sexual": 8386,
      "ਨੀਆਂ": 8387,
      "utation": 8388,
      "▁Officer,": 8389,
      "ੱਬੇ": 8390,
      "▁auction": 8391,
      "anged": 8392,
      "▁ਸ਼ਰਾਬ": 8393,
      "▁\"T": 8394,
      "▁Stand": 8395,
      "▁Shiv": 8396,
      "▁justice.\n": 8397,
      "▁transport": 8398,
      "▁substance": 8399,
      "S,": 8400,
      "ਹਾਨ": 8401,
      "▁miscon": 8402,
      "▁ਖਾਤ": 8403,
      "▁ਨਿਰਮਾ": 8404,
      "▁background": 8405,
      "▁punishable": 8406,
      "▁ਮਿਲਦੀ": 8407,
      "▁ਸੰਚਾਲਨ": 8408,
      "▁tar": 8409,
      "▁ਵਾਂਗ": 8410,
      "▁deb": 8411,
      "24": 8412,
      "s\n": 8413,
      "alid": 8414,
      "▁ਕਰਵਾਏ": 8415,
      "ਠਿਤ": 8416,
      "▁ਸਲ": 8417,
      "▁conven": 8418,
      "▁empow": 8419,
      "▁ਸੰਸ਼ੋਧਨ": 8420,
      "▁ਮਿਲਾ": 8421,
      "body": 8422,
      "let": 8423,
      "▁Lok": 8424,
      "▁wholly": 8425,
      "ਨਸੀ": 8426,
      "▁ਪਬਲਿਕ": 8427,
      "ream": 8428,
      "rep": 8429,
      "ਵਿਸ਼": 8430,
      "ump": 8431,
      "▁ਥਾਣਾ": 8432,
      "▁friend": 8433,
      "▁any,": 8434,
      "▁ਸਾਧਨ": 8435,
      "▁disposal": 8436,
      "▁ਨਵੰਬਰ,": 8437,
      "▁ਨਾਗਰਿਕਾਂ": 8438,
      "▁arises": 8439,
      "ਬੋ": 8440,
      "endence": 8441,
      "▁offered": 8442,
      "▁ਵਿਧਾਨਕ": 8443,
      "ੱਤੇ": 8444,
      "▁salary": 8445,
      "arc": 8446,
      "▁ਗੰਭੀਰਤਾ": 8447,
      "withstanding": 8448,
      "A)": 8449,
      "ਹਾੜੀ": 8450,
      "▁located": 8451,
      "▁ਮੁਲਾਕਾਤ": 8452,
      "▁normal": 8453,
      "▁J.": 8454,
      "▁ਪਾਠ": 8455,
      "▁ਕਾਗ": 8456,
      "33": 8457,
      "▁ਸ਼ੇਅਰਾਂ": 8458,
      "▁worth": 8459,
      "▁ਖੰਡ": 8460,
      "AG": 8461,
      "▁such,": 8462,
      "▁ਗ੍ਰਿਫਤਾਰੀ": 8463,
      "▁pain": 8464,
      "▁ਅੱਠ": 8465,
      "▁Sw": 8466,
      "▁5,": 8467,
      "▁purchas": 8468,
      "▁requested": 8469,
      "▁English": 8470,
      "ਵਾਹੀ": 8471,
      "▁offence.\n": 8472,
      "▁ਨੈਤਿਕ": 8473,
      "h,": 8474,
      "▁190": 8475,
      "vent": 8476,
      "▁ਕ੍ਰਿਸ਼ਨ": 8477,
      "▁AG": 8478,
      "▁ਵੇਰਵਾ": 8479,
      ".ਈ": 8480,
      "▁ਬਾਈ": 8481,
      "▁driver": 8482,
      "▁ਤਾਮਿਲਨਾਡੂ": 8483,
      "ories": 8484,
      "▁above.\n": 8485,
      "▁ਕਰੇਗਾ.\n": 8486,
      "inder": 8487,
      "▁ਹੋਵੇਗਾ,": 8488,
      "▁1988": 8489,
      "▁citizen": 8490,
      "MC": 8491,
      "▁ਅਪਰਾਧਾਂ": 8492,
      "▁ਏਕੜ": 8493,
      "▁ਦੁਸ਼ਮ": 8494,
      "▁obv": 8495,
      "▁ਭ੍ਰਿਸ਼ਟ": 8496,
      "▁Sat": 8497,
      "▁ਫੜ": 8498,
      "▁ਬਰਖਾਸਤ": 8499,
      "ਸਮ": 8500,
      "▁len": 8501,
      "▁Devi": 8502,
      "▁ਸੱਚਾਈ": 8503,
      "▁ਤੇਜ਼": 8504,
      "▁judgment.\n": 8505,
      "▁ever": 8506,
      "over,": 8507,
      "▁energ": 8508,
      "▁ਕਾਰਜਕਾਲ": 8509,
      ".ਡਬਲਯੂ": 8510,
      "▁proposal": 8511,
      "▁ਸ਼੍ਰੇਣੀਆਂ": 8512,
      "▁ਮਰਨ": 8513,
      "▁controvers": 8514,
      "▁neglig": 8515,
      "▁ਕਲਾਜ਼": 8516,
      "▁ਵੇਰਵਿਆਂ": 8517,
      "▁Techn": 8518,
      "▁ਬਜ਼ੁਰ": 8519,
      "▁III": 8520,
      "▁ਧਮ": 8521,
      "▁advance": 8522,
      "▁contentions": 8523,
      ".1999": 8524,
      "▁ਨਿਯੁਕਤੀਆਂ": 8525,
      "▁ਵਿਕਰੇ": 8526,
      "▁ਰਵਾ": 8527,
      "▁half": 8528,
      "▁presum": 8529,
      "▁ਲਿਖੀਆਂ": 8530,
      "▁accounts": 8531,
      "-C": 8532,
      "hood": 8533,
      "▁ਫਰਮਾਨ": 8534,
      "'.\n": 8535,
      "▁investment": 8536,
      "▁impact": 8537,
      "▁Any": 8538,
      "gested": 8539,
      "▁ਕਨੂੰਨ": 8540,
      "▁pendency": 8541,
      "▁ਕਿਹ": 8542,
      "▁ਡਾਇ": 8543,
      "bed": 8544,
      "aly": 8545,
      "▁ਕਿਸ਼": 8546,
      "▁(Ex": 8547,
      "▁seizure": 8548,
      "▁ਵਾਅ": 8549,
      "▁ਲਾਇਆ": 8550,
      "▁hy": 8551,
      "▁assail": 8552,
      "▁ਫ਼ਿਲਮ": 8553,
      "▁understand": 8554,
      "▁recommendations": 8555,
      "▁Kerala": 8556,
      "▁ਸੋਧਿਆ": 8557,
      "ਇੰਟ": 8558,
      "200": 8559,
      "▁CO": 8560,
      "▁(supra).\n": 8561,
      "ਟ੍ਰੇਟ": 8562,
      "▁Ms.": 8563,
      "▁ਸ਼ਾਂਤੀ": 8564,
      "▁advant": 8565,
      "▁virtue": 8566,
      "ਾਰਨ": 8567,
      "▁sol": 8568,
      "adha": 8569,
      "▁ਡਿੱ": 8570,
      "▁seniority": 8571,
      "cious": 8572,
      "erted": 8573,
      "▁Application": 8574,
      "ੋਬਾਈਲ": 8575,
      "▁ਪ੍ਰਿੰਸੀਪਲ": 8576,
      "▁Priv": 8577,
      "▁ਡਰਾਈਵਰ": 8578,
      "▁thereto": 8579,
      "▁suit.\n": 8580,
      "▁early": 8581,
      "▁ਦੁਪ": 8582,
      "endment": 8583,
      "ਾਹਜ": 8584,
      "18": 8585,
      "▁soon": 8586,
      "▁ਬੇਰ": 8587,
      "▁progress": 8588,
      "▁ਉਪਰ": 8589,
      "▁ਮਹੀਨਾ": 8590,
      "qual": 8591,
      "▁necessarily": 8592,
      "▁ordered": 8593,
      "66": 8594,
      "ਵਾਨਾਂ": 8595,
      "▁objections": 8596,
      "▁alternative": 8597,
      "ror": 8598,
      "asth": 8599,
      "17": 8600,
      "ਦਮਿਕ": 8601,
      "▁termination": 8602,
      "▁factors": 8603,
      "▁ਸਟੀ": 8604,
      "▁weeks": 8605,
      "▁ਮਜ਼ਦ": 8606,
      "▁(ਮ": 8607,
      "▁stood": 8608,
      "▁thereafter,": 8609,
      "▁Do": 8610,
      "▁same,": 8611,
      "▁ਭੈਣ": 8612,
      "▁ਸੀਆਰ": 8613,
      "▁aid": 8614,
      "▁ਧਰਤੀ": 8615,
      "▁ਐੱਸ": 8616,
      "▁persons.\n": 8617,
      "▁ਵਰਤੀ": 8618,
      "▁fell": 8619,
      "▁ਦੇਵ": 8620,
      "▁(d": 8621,
      "ਡੀਸ਼ੀਅਲ": 8622,
      "ਟਸ": 8623,
      "▁emer": 8624,
      "▁ਬਲਾਕ": 8625,
      "onstr": 8626,
      "▁dying": 8627,
      "▁ਸੁੱਟ": 8628,
      "inent": 8629,
      "▁AN": 8630,
      "▁issuance": 8631,
      "▁possess": 8632,
      "▁ਸ਼ਿਵ": 8633,
      "▁ਇਕਾਈ": 8634,
      "ਪੇ": 8635,
      "▁Sy": 8636,
      "stood": 8637,
      "ਹਿਮੀ": 8638,
      "▁ਜਾਣਗੇ": 8639,
      "iable": 8640,
      "IDENT": 8641,
      "▁ਹਵਾਈ": 8642,
      "▁ਆਨ": 8643,
      "▁Pal": 8644,
      "ਪੀਲਕਰਤਾ": 8645,
      "▁this,": 8646,
      "▁recommendation": 8647,
      "▁ਸੈਂਟਰ": 8648,
      "▁hours": 8649,
      "uls": 8650,
      "▁tradition": 8651,
      "lord": 8652,
      "▁ਚਸ਼ਮ": 8653,
      "▁Jain": 8654,
      "▁knew": 8655,
      "].\n": 8656,
      "▁ਮਹਾ": 8657,
      "▁none": 8658,
      "▁ਰਿਹਾਇਸ਼ੀ": 8659,
      "▁ਮੰਨਦਾ": 8660,
      "▁ਗਾਂ": 8661,
      "umer": 8662,
      "▁ਜਿਨਸੀ": 8663,
      "▁prosecution.\n": 8664,
      "ੋਸ਼ਣ": 8665,
      "▁ਅਧਿਆਪਕ": 8666,
      "▁strength": 8667,
      "▁contempt": 8668,
      "▁1991": 8669,
      "▁ਜੂਨ,": 8670,
      "▁ਦਬ": 8671,
      "▁ਸਦੀ": 8672,
      "▁region": 8673,
      "▁SH": 8674,
      "▁deserv": 8675,
      "▁ਦਰਦ": 8676,
      "▁introduced": 8677,
      "▁ਚਸ਼ਮਦੀ": 8678,
      "▁mal": 8679,
      "28": 8680,
      "▁ਡੂੰ": 8681,
      "estic": 8682,
      "▁ਇਹੀ": 8683,
      "▁ਹੋਟਲ": 8684,
      "▁ਚੰਦ": 8685,
      "▁incur": 8686,
      "ਿਆ।\n": 8687,
      "▁huge": 8688,
      "▁ਖੁਸ਼ੀ": 8689,
      "▁ਅਕਾਦਮਿਕ": 8690,
      "▁felt": 8691,
      "▁ਬੈਂਕਾਂ": 8692,
      "▁furnish": 8693,
      "▁research": 8694,
      "▁ਨਰ": 8695,
      "▁ਮੈਜਿਸ": 8696,
      "▁ਦਿਖਾ": 8697,
      "▁supplied": 8698,
      "ricity": 8699,
      "▁addressed": 8700,
      "sy": 8701,
      "ਟੇਬਲ": 8702,
      "▁river": 8703,
      "▁ਦੁਹਰਾਇਆ": 8704,
      "▁matter.\n": 8705,
      "▁ਗੋਲੀ": 8706,
      "▁State,": 8707,
      "▁larger": 8708,
      "UT": 8709,
      "▁majority": 8710,
      "set": 8711,
      "▁insurance": 8712,
      "portion": 8713,
      "abilities": 8714,
      "-ਦ": 8715,
      "▁receive": 8716,
      "▁ਕਨ": 8717,
      "▁ਯੂਨਿਟ": 8718,
      "ਵਾਏ": 8719,
      "CT": 8720,
      "▁ਵੈਧਤਾ": 8721,
      ".2018": 8722,
      "ayan": 8723,
      "▁mess": 8724,
      "▁ਪ੍ਰਭਾ": 8725,
      "▁certainly": 8726,
      "▁ਨਜ਼": 8727,
      "▁release": 8728,
      "eria": 8729,
      "▁ਸਾਜ਼": 8730,
      "▁February": 8731,
      "▁Principal": 8732,
      "ina": 8733,
      "▁ਮ੍ਰਿਤਕਾਂ": 8734,
      "▁expir": 8735,
      "▁ਅਣਜਾਣ": 8736,
      "▁1987": 8737,
      "▁util": 8738,
      "▁litig": 8739,
      "▁ਲੜੀ": 8740,
      "੍ਰਾਈ": 8741,
      "▁ਦੁਪਹਿਰ": 8742,
      "▁low": 8743,
      "ਾਨੇ": 8744,
      "▁ਮੁਕੱਦਮੇਬਾਜ਼ੀ": 8745,
      "▁ਬਦਲੇ": 8746,
      "▁achieve": 8747,
      "▁bag": 8748,
      "▁ਤੋੜ": 8749,
      "▁ਕਰਨ,": 8750,
      "▁ਪਰੰਤੂ": 8751,
      "▁ਸੰਸਕਰਣ": 8752,
      "▁ਬੰਦੋਬ": 8753,
      "ਮ,": 8754,
      "▁ਮੰਗੀ": 8755,
      "▁ਮਾਲਕਾਂ": 8756,
      "▁ਪੇਟੈਂਟ": 8757,
      "▁ਚਰ": 8758,
      "▁Land": 8759,
      "▁approached": 8760,
      "▁ਲਰਨ": 8761,
      "▁ਡੀਲ": 8762,
      "▁ਪਾਵਰ": 8763,
      "▁ਸ਼ੱਕੀ": 8764,
      "▁(ਅ)": 8765,
      "▁proced": 8766,
      "▁guilt": 8767,
      "▁ਮੈਜਿਸਟ੍ਰੇਟ": 8768,
      "ਿਆ,": 8769,
      "▁ਦਵਾਈ": 8770,
      "▁establishment": 8771,
      "▁ਨਾਬਾਲਗ": 8772,
      "rastructure": 8773,
      "ੱਕਰ": 8774,
      "unities": 8775,
      "▁pron": 8776,
      "▁Arbitrator": 8777,
      "ਚਾਈ": 8778,
      "ੂਲੀ": 8779,
      "▁ਵਿਚਲੀ": 8780,
      "iary": 8781,
      "▁truth": 8782,
      "▁ਇਲੈਕਟ": 8783,
      "▁ਵਿਹਾਰ": 8784,
      "▁points": 8785,
      "▁else": 8786,
      "▁ਸਾਰਿਆਂ": 8787,
      "▁ਸਰਕਾਰਾਂ": 8788,
      "▁activity": 8789,
      "▁harm": 8790,
      "pped": 8791,
      "65": 8792,
      "ਬਰਦ": 8793,
      "sured": 8794,
      "▁conflic": 8795,
      "▁\"\"": 8796,
      "ortem": 8797,
      "▁ਦਿੱਤੀ.\n": 8798,
      "▁college": 8799,
      "▁acquitted": 8800,
      "ਸਟਰ": 8801,
      "▁origin": 8802,
      "ਬਲੀ": 8803,
      "-in-law": 8804,
      "▁ਬੰਦੋਬਸਤ": 8805,
      "▁sil": 8806,
      "▁promis": 8807,
      "▁ਵਿਭਾਗੀ": 8808,
      "▁ਅਹਾਤੇ": 8809,
      "▁clot": 8810,
      "ਕ੍ਰਿਤ": 8811,
      "▁ਸੁਣਨ": 8812,
      "-ਪ੍ਰ": 8813,
      ".1998": 8814,
      "▁ਤਾਜ਼ਾ": 8815,
      "▁ਖ਼ੁਦ": 8816,
      "▁ਮੰਦ": 8817,
      "▁ਅੱਤ": 8818,
      "▁extension": 8819,
      "▁secured": 8820,
      "on,": 8821,
      "ਿਊ": 8822,
      "▁anim": 8823,
      "▁ਮੁਲਤ": 8824,
      "▁ਫੋਨ": 8825,
      "▁PRESIDENT": 8826,
      "aily": 8827,
      "▁response": 8828,
      "▁ਕਾਰਕ": 8829,
      "▁analysis": 8830,
      "dom": 8831,
      "▁ਮੁਲਤਵੀ": 8832,
      "▁played": 8833,
      "▁Labour": 8834,
      "-9": 8835,
      "▁stri": 8836,
      "▁dismissal": 8837,
      "itness": 8838,
      "▁simple": 8839,
      "▁Group": 8840,
      "▁ਰੋਸ਼ਨੀ": 8841,
      "▁Att": 8842,
      "▁signature": 8843,
      ".',": 8844,
      "▁1956": 8845,
      "▁ਕਿਸਮਾਂ": 8846,
      "▁interests": 8847,
      "▁degree": 8848,
      "▁mechan": 8849,
      "oj": 8850,
      "▁suggested": 8851,
      "▁Award": 8852,
      "ਵੇਦਨ": 8853,
      "eated": 8854,
      "▁lap": 8855,
      "▁ਪਹਿਲ": 8856,
      "▁ਮਾਰਗ": 8857,
      "▁defined": 8858,
      "▁P.S.-": 8859,
      "▁ਚਸ਼ਮਦੀਦ": 8860,
      "M.": 8861,
      "▁ਰੇਟ": 8862,
      "▁ਬਹਾਲ": 8863,
      "ਨਾਕ": 8864,
      "▁ਏਆਈਆਰ": 8865,
      "▁ਗੁਣਵ": 8866,
      "▁recommended": 8867,
      "lack": 8868,
      "▁looking": 8869,
      "▁pronoun": 8870,
      "68": 8871,
      "▁ਸਿਸ": 8872,
      "▁notified": 8873,
      "▁Some": 8874,
      "▁ਕਰੇਗੀ.\n": 8875,
      "▁undertaking": 8876,
      "▁ਅਲੀ": 8877,
      "▁render": 8878,
      "▁ਦਿਮਾਗ": 8879,
      "▁bit": 8880,
      "▁her.\n": 8881,
      "gn": 8882,
      "▁speak": 8883,
      "ches": 8884,
      "▁ਨਿਰਯਾਤ": 8885,
      "▁admit": 8886,
      "▁refused": 8887,
      "▁house.\n": 8888,
      "▁ਨਜ਼ਰੀਏ": 8889,
      "▁ਜਾਣੂ": 8890,
      "▁ਸਾਥੀ": 8891,
      "ਧੂ": 8892,
      "▁\"ਉ": 8893,
      ".1997": 8894,
      "▁Regulations": 8895,
      "▁ਅਮਲ": 8896,
      "▁ਵੋ": 8897,
      "▁Ne": 8898,
      "▁ਸਮਾਪਤੀ": 8899,
      "▁ਸਾਲਸ": 8900,
      "ealth": 8901,
      "▁appeal,": 8902,
      "▁ਕਾੱ": 8903,
      "▁ਕ੍ਰੈਡਿਟ": 8904,
      "atio": 8905,
      "▁furnished": 8906,
      "gar": 8907,
      "ishes": 8908,
      "orand": 8909,
      "▁late": 8910,
      "▁ਹਰਿਆ": 8911,
      "ਧਰਾ": 8912,
      "▁ਅਲਾ": 8913,
      "▁demonstr": 8914,
      "ਧਾ": 8915,
      "▁ਪ੍ਰਸਾਰ": 8916,
      "▁ਨਿਜੀ": 8917,
      "▁\"ਸ": 8918,
      "▁Ins": 8919,
      "▁pan": 8920,
      "nel": 8921,
      "▁person,": 8922,
      "▁ਦ੍ਰਿੜਤਾ": 8923,
      "▁across": 8924,
      "▁ਸਫਲਤਾ": 8925,
      "▁Other": 8926,
      "▁(198": 8927,
      "-w": 8928,
      "ਜਾਇਆ": 8929,
      "▁Cert": 8930,
      "rael": 8931,
      "▁IND": 8932,
      "▁bea": 8933,
      "▁Ph": 8934,
      "▁nos": 8935,
      "▁ਪੱਤਰਾਂ": 8936,
      "▁install": 8937,
      "▁ਹਫ਼ਤਿਆਂ": 8938,
      "▁ਜਤਾ": 8939,
      "▁cited": 8940,
      "▁cash": 8941,
      "▁calc": 8942,
      "▁contain": 8943,
      "▁ਅਸਵੀਕਾਰ": 8944,
      "▁ਯੋਜਨਾਵਾਂ": 8945,
      "▁gets": 8946,
      "▁finally": 8947,
      "▁ਨੇ,": 8948,
      "▁funds": 8949,
      "▁ਸਾਜ": 8950,
      "▁incident.\n": 8951,
      "ਾਇਓ": 8952,
      "▁believe": 8953,
      "▁August,": 8954,
      "▁ਜ਼ਮੀਨੀ": 8955,
      "▁invalid": 8956,
      "CO": 8957,
      "▁ਕੁੱਟ": 8958,
      "▁ਬਾਹ": 8959,
      "▁pertaining": 8960,
      "▁July": 8961,
      "▁weight": 8962,
      "▁ਕੁਸ਼ਲ": 8963,
      "ਆਈਟੀ": 8964,
      "▁ਛੋਟਾ": 8965,
      "know": 8966,
      "rust": 8967,
      "ਦੇਹ": 8968,
      "▁enacted": 8969,
      "ING": 8970,
      "▁goes": 8971,
      "▁ਮੋਬਾਈਲ": 8972,
      "▁understood": 8973,
      "lies": 8974,
      ".ਟੀ.": 8975,
      "▁agricultural": 8976,
      "▁ਬਚਾਉਣ": 8977,
      "▁Moreover,": 8978,
      "line": 8979,
      "▁million": 8980,
      "▁ਅਪਾਹਜ": 8981,
      "ਨਾਹ": 8982,
      "▁stipulated": 8983,
      "▁ਨਵੀਨ": 8984,
      "▁ਸਖਤੀ": 8985,
      "▁deciding": 8986,
      "ੇਂਜ": 8987,
      "▁refund": 8988,
      "▁example": 8989,
      "▁January,": 8990,
      "▁totally": 8991,
      "ੰਡਾ": 8992,
      "▁importance": 8993,
      "▁war": 8994,
      "▁ਰਿਟਰਨ": 8995,
      "▁ਹਾਸਲ": 8996,
      "kh": 8997,
      "ਵਤ": 8998,
      "▁paper": 8999,
      "▁ਸਟੈਂਡ": 9000,
      "▁\"ਅ": 9001,
      "▁directing": 9002,
      "▁Khan": 9003,
      "▁shall,": 9004,
      "ਸਥਾਨ": 9005,
      "▁subsequently": 9006,
      "ones": 9007,
      "========": 9008,
      "▁ਲਾਸ਼": 9009,
      "anger": 9010,
      "▁satisfaction": 9011,
      "ਸ਼ੂ": 9012,
      "▁ਆਪਸੀ": 9013,
      "▁construed": 9014,
      "▁Bhar": 9015,
      "▁deposition": 9016,
      "ਸ਼ੀਲਤਾ": 9017,
      "▁ਇਜ਼": 9018,
      "▁Int": 9019,
      "lling": 9020,
      "enditure": 9021,
      "▁judiciary": 9022,
      "▁dign": 9023,
      "▁December,": 9024,
      "wan": 9025,
      "▁ਘੰ": 9026,
      "▁narr": 9027,
      "▁Utt": 9028,
      "▁advocate": 9029,
      "▁allotment": 9030,
      "ਿਟੀ": 9031,
      "▁ਖਿਡ": 9032,
      "▁issuing": 9033,
      "▁ali": 9034,
      "▁Right": 9035,
      "▁ਸਪੁਰ": 9036,
      "▁retro": 9037,
      "▁P.W.": 9038,
      "▁R.": 9039,
      "▁.ਿਆ": 9040,
      "▁\"ਇਹ": 9041,
      "23": 9042,
      "actions": 9043,
      "▁ਜੱਜ,": 9044,
      ".ਐੱਸ.": 9045,
      "ਗਿਣਤੀ": 9046,
      "ankar": 9047,
      "▁delivery": 9048,
      "▁villa": 9049,
      "ure,": 9050,
      "▁Society": 9051,
      "ਹਰੇ": 9052,
      "▁ਧਾਰਣਾ": 9053,
      "▁wanted": 9054,
      "▁ਮੈਨੇਜਰ": 9055,
      "read": 9056,
      "ply": 9057,
      "▁eight": 9058,
      ".ਐਲ": 9059,
      "▁ਨਿਭਾਉਣ": 9060,
      "▁ਆਬ": 9061,
      "▁(6)": 9062,
      "▁ਸੰਤੁਸ਼ਟੀ": 9063,
      "▁ordinary": 9064,
      "▁ਜਿਹੜੀਆਂ": 9065,
      "▁Similarly,": 9066,
      "▁potential": 9067,
      "▁ਖਾਨ": 9068,
      "▁ਮੁਰ": 9069,
      "▁upheld": 9070,
      "▁ਬਦਲਿਆ": 9071,
      "▁ਸੰਦੇਸ਼": 9072,
      "▁peace": 9073,
      "asmuch": 9074,
      "ੋਪ": 9075,
      "▁+": 9076,
      "▁dow": 9077,
      "▁usu": 9078,
      "70": 9079,
      "▁sound": 9080,
      "ਂਦਰ": 9081,
      "aya": 9082,
      "▁ਗ੍ਰਹਿਣ": 9083,
      "▁ਸਮੁੱਚੇ": 9084,
      "▁Sam": 9085,
      "▁try": 9086,
      "▁Road": 9087,
      "▁ਮਹਾਨ": 9088,
      "▁vacancies": 9089,
      "▁ਖਣਿਜ": 9090,
      "500": 9091,
      "▁ਹੋਣੇ": 9092,
      "rap": 9093,
      "▁ਪ੍ਰਕਾਸ਼": 9094,
      "▁Har": 9095,
      "▁conspiracy": 9096,
      "▁Jag": 9097,
      "▁1986": 9098,
      "▁principal": 9099,
      "▁woman": 9100,
      "▁implementation": 9101,
      "▁distinction": 9102,
      "▁respondent,": 9103,
      "▁medic": 9104,
      "ਰਜਾ": 9105,
      "▁rail": 9106,
      "ATION": 9107,
      "▁Sharma": 9108,
      "rid": 9109,
      "▁Wor": 9110,
      "▁Moh": 9111,
      "▁deliber": 9112,
      "▁ਭਾਗੀ": 9113,
      "gest": 9114,
      "▁ਕਿੰ": 9115,
      "▁ਗਜ਼": 9116,
      "▁mental": 9117,
      "ulty": 9118,
      "▁ਗੇ": 9119,
      "▁ਪ੍ਰਤ": 9120,
      "▁objective": 9121,
      "▁ਜਹਾਜ਼": 9122,
      "ਜਿ": 9123,
      "▁ਕੁੱਝ": 9124,
      "▁ਭੜ": 9125,
      "▁card": 9126,
      "▁hous": 9127,
      "▁repro": 9128,
      "▁ਚੰਗੇ": 9129,
      "▁happy": 9130,
      "▁Bl": 9131,
      "▁ਵਾਪਰੀ": 9132,
      "▁ਹੋਵੇ.\n": 9133,
      "▁International": 9134,
      "▁possibility": 9135,
      "▁challenging": 9136,
      "▁amongst": 9137,
      "aulted": 9138,
      "put": 9139,
      "▁ਦਰਵਾ": 9140,
      "orandum": 9141,
      "▁ਸਾਜਿਸ਼": 9142,
      "▁ਮਰੀਜ਼": 9143,
      "▁(197": 9144,
      "ape": 9145,
      "▁risk": 9146,
      "-199": 9147,
      "ett": 9148,
      "▁ਪ੍ਰਸ਼ੰਸਾ": 9149,
      "▁der": 9150,
      "▁ਕਰਨਗੇ": 9151,
      "▁aim": 9152,
      "▁CPC": 9153,
      "▁integr": 9154,
      "▁Now": 9155,
      "▁ਲਾਰਡ": 9156,
      "26": 9157,
      "▁confidence": 9158,
      "▁(ਡੀ)": 9159,
      "respondent": 9160,
      "▁ਏ.": 9161,
      "▁gold": 9162,
      "▁ਗੁਪਤਾ": 9163,
      "▁ratio": 9164,
      "▁witnesses.\n": 9165,
      "▁developed": 9166,
      "▁ਪੜ੍ਹਨ": 9167,
      "▁reports": 9168,
      "▁ਵੇਖਣਾ": 9169,
      "▁ਹਾਦਸੇ": 9170,
      "▁ele": 9171,
      "be": 9172,
      "▁cases.\n": 9173,
      "ਿਆਲ": 9174,
      "▁image": 9175,
      "▁obtaining": 9176,
      "▁ready": 9177,
      "overned": 9178,
      "▁front": 9179,
      "▁distinct": 9180,
      "▁elected": 9181,
      "▁ਸਕੂ": 9182,
      "▁accused-": 9183,
      "▁married": 9184,
      "▁ਆਯਾਤ": 9185,
      "▁ਫਾਂਸੀ": 9186,
      "ager": 9187,
      "▁factor": 9188,
      "▁concerned.\n": 9189,
      "▁undertaken": 9190,
      "▁ਪਿਛਲੀ": 9191,
      "▁53": 9192,
      "▁ਜਨਵਰੀ": 9193,
      "▁governed": 9194,
      "▁ਲਿਜਾਇਆ": 9195,
      "▁citizens": 9196,
      "ban": 9197,
      "▁ਅਪਮਾਨ": 9198,
      "▁ਯਾਤ": 9199,
      "▁religion": 9200,
      "aul": 9201,
      "▁ਗੋਲ": 9202,
      "▁marked": 9203,
      "▁July,": 9204,
      "hy": 9205,
      "i-": 9206,
      "▁interested": 9207,
      "▁current": 9208,
      "▁lac": 9209,
      "▁ਨੌਕਰ": 9210,
      "▁ਸੀਮਾਵਾਂ": 9211,
      "▁ਅਕਤੂਬਰ,": 9212,
      "▁contribution": 9213,
      "▁spir": 9214,
      "▁ਪੈਰ": 9215,
      "▁partition": 9216,
      "▁ਖੁੱਲ੍ਹਾ": 9217,
      "ਧੁਨਿਕ": 9218,
      "▁also,": 9219,
      "able,": 9220,
      "▁accomp": 9221,
      "▁iran": 9222,
      "▁motive": 9223,
      "▁June": 9224,
      "▁occurred": 9225,
      "▁reads": 9226,
      "▁professional": 9227,
      "▁retirement": 9228,
      "▁ਕੁੰ": 9229,
      "▁ਰਾਈ": 9230,
      "▁Pran": 9231,
      "▁identification": 9232,
      "ਰਾਸ": 9233,
      "▁maintenance": 9234,
      "▁ਸ਼ੁੱਧਤਾ": 9235,
      "▁ਦਹਾ": 9236,
      "▁1973": 9237,
      "▁ਪਏਗਾ.\n": 9238,
      "▁exemption": 9239,
      "above": 9240,
      "▁contest": 9241,
      "▁arbitrary": 9242,
      "ਲਰ": 9243,
      "▁Rel": 9244,
      "ਨਿਯਮ": 9245,
      "ਵਿਵ": 9246,
      "▁length": 9247,
      "rel": 9248,
      "▁ਮਿੰਟ": 9249,
      "▁ਅਧਿਆਇ": 9250,
      "▁rival": 9251,
      "▁NO": 9252,
      "▁imper": 9253,
      "▁determining": 9254,
      "▁September,": 9255,
      "▁convey": 9256,
      "ਇਤੀ": 9257,
      "▁ਕਪ": 9258,
      "▁ਵਚਨ": 9259,
      "ributed": 9260,
      ".1994": 9261,
      "▁ordin": 9262,
      "▁highest": 9263,
      "▁tell": 9264,
      "▁ਦੱਸੋ": 9265,
      "▁sharehold": 9266,
      "▁ਸਿਵਾਏ": 9267,
      "▁reserved": 9268,
      "▁consequences": 9269,
      "▁ਪਦਾਰਥਾਂ": 9270,
      "▁Mr": 9271,
      "▁exped": 9272,
      "▁ਗਿ": 9273,
      "ਟਰੋ": 9274,
      "▁Fund": 9275,
      "▁ਜੁਡੀਸ਼ੀਅਲ": 9276,
      "ਲੈਂਡ": 9277,
      "ੇਸ਼ਵਰ": 9278,
      "▁ਭਗ": 9279,
      "▁diss": 9280,
      "▁ਇੰਡੀਅਨ": 9281,
      "▁ਵਿਧ": 9282,
      "▁welfare": 9283,
      "88": 9284,
      "▁rank": 9285,
      "▁article": 9286,
      "▁enh": 9287,
      "▁views": 9288,
      "ivered": 9289,
      "olved": 9290,
      "▁advantage": 9291,
      "▁indicates": 9292,
      "▁...\n": 9293,
      "▁ਧਮਕੀ": 9294,
      "inc": 9295,
      "▁Mand": 9296,
      "▁56": 9297,
      "▁suc": 9298,
      "ਦੀਪ": 9299,
      "▁ਪ੍ਰੋਫ": 9300,
      "▁ਫੈਲ": 9301,
      "▁litigation": 9302,
      "▁commencement": 9303,
      "▁ਬੁੱਧ": 9304,
      "▁ਭੀ": 9305,
      "▁ਸਮਾਰ": 9306,
      "▁check": 9307,
      "▁errone": 9308,
      "▁ਇੰਗਲ": 9309,
      "▁itself.\n": 9310,
      "ੰਮਦ": 9311,
      "▁ਮਨਮਾਨੀ": 9312,
      "▁landlord": 9313,
      "▁ਸਨ।": 9314,
      "▁Head": 9315,
      "▁coal": 9316,
      "▁Management": 9317,
      "▁(PW-1": 9318,
      "▁generally": 9319,
      "▁energy": 9320,
      "▁ਨਿਕਲ": 9321,
      "▁1980": 9322,
      "▁ਇਕਾਈਆਂ": 9323,
      "▁ਖਰੀਦਣ": 9324,
      "▁top": 9325,
      "▁Kar": 9326,
      "assion": 9327,
      "▁deduction": 9328,
      "▁ਪੈਸਾ": 9329,
      "oms": 9330,
      "▁Stat": 9331,
      "▁ਸਹਿਯੋਗ": 9332,
      "▁ਮਿੱਟੀ": 9333,
      "▁pre-": 9334,
      "▁remand": 9335,
      "PS": 9336,
      "▁ਅਵਸਥਾ": 9337,
      "▁ਸਿੱਧੀ": 9338,
      "▁ਲਿਆ।\n": 9339,
      "▁ਥਾਵਾਂ": 9340,
      "▁moved": 9341,
      "▁ਸਵਾ": 9342,
      "▁clos": 9343,
      "▁ਸਿਫਾਰਸ਼ਾਂ": 9344,
      "▁''": 9345,
      "▁concluded": 9346,
      "75": 9347,
      "ਜਾਮ": 9348,
      "▁choice": 9349,
      "▁ਗਏ.\n": 9350,
      "▁ਚੌਧ": 9351,
      "▁AS": 9352,
      "▁not,": 9353,
      "cient": 9354,
      "▁ਸੀ;": 9355,
      "▁was,": 9356,
      "▁them,": 9357,
      "ਡੀਨ": 9358,
      "▁Chandra": 9359,
      "▁morning": 9360,
      "▁inspection": 9361,
      "▁ਪੜ੍ਹਿਆ": 9362,
      "▁definite": 9363,
      "▁ਕਾਂ": 9364,
      "▁daily": 9365,
      "▁killed": 9366,
      "▁standing": 9367,
      "▁happened": 9368,
      "▁ਸੰਕਲ": 9369,
      "▁ਜੁੜਿਆ": 9370,
      "▁convict": 9371,
      "C)": 9372,
      "▁ਪ੍ਰਣਬ": 9373,
      "▁ਫੌਜ": 9374,
      "▁ਸਾਰਾ": 9375,
      "ate.\n": 9376,
      "▁uns": 9377,
      "▁service.\n": 9378,
      "ਡੀਏ": 9379,
      "▁products": 9380,
      "▁ਡਿੱਗ": 9381,
      "IV": 9382,
      "▁ਆਧੁਨਿਕ": 9383,
      "▁lie": 9384,
      "▁workmen": 9385,
      "▁distingu": 9386,
      "ਉਚਿਤ": 9387,
      "▁ਜ਼ੁ": 9388,
      "▁ਰਿਕਾਰਡਾਂ": 9389,
      "▁hereby": 9390,
      "▁resources": 9391,
      "▁ਮਨੀ": 9392,
      "▁mom": 9393,
      "▁ਸ਼ਾਸਤ": 9394,
      "▁ਬਣਦੀ": 9395,
      "▁delivered": 9396,
      "▁cadre": 9397,
      "ੱਖਣੀ": 9398,
      "▁ਜ਼ਬਰਦ": 9399,
      "▁ਅਜੀ": 9400,
      "▁maintained": 9401,
      "▁ਮਿਲੀਅਨ": 9402,
      "rog": 9403,
      "pto": 9404,
      "▁prem": 9405,
      "▁identity": 9406,
      "▁ਹੋਣਗੀਆਂ": 9407,
      "▁expenditure": 9408,
      "▁ਖਾਤਿਆਂ": 9409,
      "▁former": 9410,
      "▁described": 9411,
      "▁P.W.1": 9412,
      "ਰੇਟ": 9413,
      "64": 9414,
      "▁ਵਚਨਬੱਧ": 9415,
      "▁ਟੇ": 9416,
      ".1996": 9417,
      "aneous": 9418,
      "u,": 9419,
      "▁ਲੈਂਡ": 9420,
      "▁ਸੀਬੀਆਈ": 9421,
      "▁Superint": 9422,
      "▁allotted": 9423,
      "▁ਡਿਫਾਲ": 9424,
      "▁squ": 9425,
      "▁Thus": 9426,
      "▁ਦਿਖਾਇਆ": 9427,
      "▁ਸਕਦੀ।\n": 9428,
      "▁ਚੇਨ": 9429,
      "▁ਸਿਸਟਮ": 9430,
      "-ਟ": 9431,
      "▁prevail": 9432,
      "▁ਹੀ,": 9433,
      "▁ਨਾਗ": 9434,
      "▁ਸਮਝਦਾ": 9435,
      "▁costs": 9436,
      "▁ਕਾਨ": 9437,
      "▁Go": 9438,
      "ਵਰਾਂ": 9439,
      "▁labour": 9440,
      "▁suicide": 9441,
      "▁concern": 9442,
      "▁Kumar,": 9443,
      "▁ਵਿਭ": 9444,
      "▁B.": 9445,
      "▁ਸ਼ਾਹ": 9446,
      "ore,": 9447,
      "▁ਵੱਖਰੀਆਂ": 9448,
      "▁indeed": 9449,
      "▁64": 9450,
      "▁Sun": 9451,
      "▁corporate": 9452,
      "▁ਗਾਰੰਟੀ": 9453,
      "▁persons,": 9454,
      "▁ਮਾਮੂਲੀ": 9455,
      "▁rape": 9456,
      "▁Assembly": 9457,
      "▁ਸਕਣ": 9458,
      "▁Municipal": 9459,
      "▁West": 9460,
      "▁substantive": 9461,
      "▁ਸਾਜ਼ਿਸ਼": 9462,
      "ਪੂ": 9463,
      "▁ਕੁਰ": 9464,
      "▁instructions": 9465,
      "▁maximum": 9466,
      "▁ਲੱਗੀ": 9467,
      "▁ਤਬਾਦਲਾ": 9468,
      "▁reduced": 9469,
      "▁C.": 9470,
      "▁ਭੰਡ": 9471,
      "rah": 9472,
      "▁Hary": 9473,
      "▁ਤਕਨਾਲੋਜੀ": 9474,
      "▁Cal": 9475,
[...]
